{
  "version": "1.0",
  "truncation": null,
  "padding": null,
  "added_tokens": [
    {
      "id": 0,
      "content": "[PAD]",
      "single_word": false,
      "lstrip": false,
      "rstrip": false,
      "normalized": false,
      "special": true
    },
    {
      "id": 1,
      "content": "[UNK]",
      "single_word": false,
      "lstrip": false,
      "rstrip": false,
      "normalized": false,
      "special": true
    },
    {
      "id": 2,
      "content": "[CLS]",
      "single_word": false,
      "lstrip": false,
      "rstrip": false,
      "normalized": false,
      "special": true
    },
    {
      "id": 3,
      "content": "[SEP]",
      "single_word": false,
      "lstrip": false,
      "rstrip": false,
      "normalized": false,
      "special": true
    },
    {
      "id": 4,
      "content": "[MASK]",
      "single_word": false,
      "lstrip": false,
      "rstrip": false,
      "normalized": false,
      "special": true
    }
  ],
  "normalizer": null,
  "pre_tokenizer": {
    "type": "Whitespace"
  },
  "post_processor": null,
  "decoder": null,
  "model": {
    "type": "BPE",
    "dropout": null,
    "unk_token": null,
    "continuing_subword_prefix": null,
    "end_of_word_suffix": null,
    "fuse_unk": false,
    "byte_fallback": false,
    "ignore_merges": false,
    "vocab": {
      "[PAD]": 0,
      "[UNK]": 1,
      "[CLS]": 2,
      "[SEP]": 3,
      "[MASK]": 4,
      "!": 5,
      "\"": 6,
      "#": 7,
      "$": 8,
      "%": 9,
      "&": 10,
      "'": 11,
      "(": 12,
      ")": 13,
      "*": 14,
      "+": 15,
      ",": 16,
      "-": 17,
      ".": 18,
      "/": 19,
      "0": 20,
      "1": 21,
      "2": 22,
      "3": 23,
      "4": 24,
      "5": 25,
      "6": 26,
      "7": 27,
      "8": 28,
      "9": 29,
      ":": 30,
      ";": 31,
      "<": 32,
      "=": 33,
      ">": 34,
      "?": 35,
      "@": 36,
      "A": 37,
      "B": 38,
      "C": 39,
      "D": 40,
      "E": 41,
      "F": 42,
      "G": 43,
      "H": 44,
      "I": 45,
      "J": 46,
      "K": 47,
      "L": 48,
      "M": 49,
      "N": 50,
      "O": 51,
      "P": 52,
      "Q": 53,
      "R": 54,
      "S": 55,
      "T": 56,
      "U": 57,
      "V": 58,
      "W": 59,
      "X": 60,
      "Y": 61,
      "Z": 62,
      "[": 63,
      "\\": 64,
      "]": 65,
      "^": 66,
      "_": 67,
      "`": 68,
      "a": 69,
      "b": 70,
      "c": 71,
      "d": 72,
      "e": 73,
      "f": 74,
      "g": 75,
      "h": 76,
      "i": 77,
      "j": 78,
      "k": 79,
      "l": 80,
      "m": 81,
      "n": 82,
      "o": 83,
      "p": 84,
      "q": 85,
      "r": 86,
      "s": 87,
      "t": 88,
      "u": 89,
      "v": 90,
      "w": 91,
      "x": 92,
      "y": 93,
      "z": 94,
      "{": 95,
      "|": 96,
      "}": 97,
      "~": 98,
      "th": 99,
      "ma": 100,
      "in": 101,
      "al": 102,
      "en": 103,
      "is": 104,
      "on": 105,
      "re": 106,
      "ti": 107,
      "le": 108,
      "er": 109,
      "math": 110,
      "cal": 111,
      "te": 112,
      "an": 113,
      "of": 114,
      "to": 115,
      "the": 116,
      "se": 117,
      "mathcal": 118,
      "mma": 119,
      "or": 120,
      "es": 121,
      "be": 122,
      "$\\": 123,
      "tion": 124,
      "ro": 125,
      "ar": 126,
      "lemma": 127,
      "om": 128,
      "at": 129,
      "Le": 130,
      "$.": 131,
      "and": 132,
      "su": 133,
      "si": 134,
      "ch": 135,
      "ph": 136,
      "fin": 137,
      "pro": 138,
      "ra": 139,
      "lo": 140,
      "ref": 141,
      "ent": 142,
      "ing": 143,
      "ec": 144,
      "ac": 145,
      "ge": 146,
      "ver": 147,
      "ite": 148,
      "we": 149,
      "that": 150,
      "ve": 151,
      "de": 152,
      "}$": 153,
      "me": 154,
      "ly": 155,
      "Th": 156,
      "qu": 157,
      "orph": 158,
      "$$": 159,
      "mes": 160,
      "end": 161,
      "(\\": 162,
      "ism": 163,
      "orphism": 164,
      ")$": 165,
      "ts": 166,
      "ate": 167,
      "ce": 168,
      "as": 169,
      "du": 170,
      "gin": 171,
      "begin": 172,
      "Lemma": 173,
      "ri": 174,
      "Let": 175,
      "_i": 176,
      "over": 177,
      "po": 178,
      "for": 179,
      "im": 180,
      "times": 181,
      "com": 182,
      "ul": 183,
      "{\\": 184,
      "no": 185,
      "st": 186,
      "la": 187,
      "it": 188,
      "ic": 189,
      "proof": 190,
      "mo": 191,
      "})": 192,
      "un": 193,
      "xt": 194,
      "morphism": 195,
      "ta": 196,
      "finite": 197,
      "sp": 198,
      "ction": 199,
      "co": 200,
      "con": 201,
      "sh": 202,
      "set": 203,
      "by": 204,
      "ld": 205,
      "bra": 206,
      "gebra": 207,
      "sub": 208,
      "_1": 209,
      "times_": 210,
      "ation": 211,
      "jec": 212,
      "^{": 213,
      "}.": 214,
      "wi": 215,
      "bel": 216,
      "map": 217,
      "^\\": 218,
      "comp": 219,
      "us": 220,
      "di": 221,
      "tive": 222,
      "ence": 223,
      "ex": 224,
      "che": 225,
      "fi": 226,
      "fra": 227,
      "text": 228,
      "label": 229,
      "item": 230,
      "af": 231,
      "wh": 232,
      "mathfra": 233,
      "mathfrak": 234,
      "sche": 235,
      "et": 236,
      "algebra": 237,
      "see": 238,
      "local": 239,
      "let": 240,
      "}(": 241,
      "per": 242,
      "qua": 243,
      "$,": 244,
      "dule": 245,
      "with": 246,
      "The": 247,
      "$-": 248,
      "module": 249,
      "subset": 250,
      "ind": 251,
      "act": 252,
      "defin": 253,
      "section": 254,
      "mer": 255,
      "are": 256,
      "gh": 257,
      "op": 258,
      "sion": 259,
      "spac": 260,
      "ap": 261,
      "indent": 262,
      "noindent": 263,
      "pre": 264,
      "log": 265,
      "ition": 266,
      "ots": 267,
      "ring": 268,
      "quasi": 269,
      "ds": 270,
      "bul": 271,
      "bullet": 272,
      "ldots": 273,
      "Sp": 274,
      "if": 275,
      "ale": 276,
      "tor": 277,
      "ble": 278,
      "equ": 279,
      "ty": 280,
      "ci": 281,
      "eri": 282,
      "etale": 283,
      "_n": 284,
      "ed": 285,
      "ol": 286,
      "coh": 287,
      "'$": 288,
      "iv": 289,
      "low": 290,
      "ase": 291,
      "this": 292,
      "mp": 293,
      "_0": 294,
      "_X": 295,
      "jective": 296,
      "lim": 297,
      "she": 298,
      "Then": 299,
      "gor": 300,
      "umer": 301,
      "ategor": 302,
      "scheme": 303,
      "mal": 304,
      "enumer": 305,
      "enumerate": 306,
      "We": 307,
      "lat": 308,
      "definition": 309,
      "up": 310,
      "bf": 311,
      "otimes_": 312,
      "logy": 313,
      "ght": 314,
      "ob": 315,
      "comple": 316,
      "par": 317,
      "ine": 318,
      "pres": 319,
      "mathbf": 320,
      "ha": 321,
      "such": 322,
      "proper": 323,
      "flat": 324,
      "int": 325,
      "line": 326,
      "^{-": 327,
      "fun": 328,
      "ollow": 329,
      "then": 330,
      "},": 331,
      "ki": 332,
      "row": 333,
      "bo": 334,
      "follow": 335,
      "omo": 336,
      "have": 337,
      ")$.": 338,
      "$(": 339,
      "tri": 340,
      "}$.": 341,
      "ct": 342,
      "Spec": 343,
      "sed": 344,
      "var": 345,
      "clo": 346,
      "arrow": 347,
      "ru": 348,
      "open": 349,
      "f_": 350,
      "ated": 351,
      "morphisms": 352,
      "categor": 353,
      "omorphism": 354,
      "^*": 355,
      "can": 356,
      "right": 357,
      "ies": 358,
      "spaces": 359,
      "locally": 360,
      "func": 361,
      "fine": 362,
      "kip": 363,
      "ur": 364,
      "ore": 365,
      "_2": 366,
      "meds": 367,
      "medskip": 368,
      "algebraic": 369,
      "pha": 370,
      "alpha": 371,
      "affine": 372,
      "ga": 373,
      "ment": 374,
      "By": 375,
      "In": 376,
      "closed": 377,
      "ack": 378,
      "ho": 379,
      "der": 380,
      "iz": 381,
      "dim": 382,
      "oth": 383,
      "present": 384,
      "there": 385,
      "app": 386,
      "phi": 387,
      "rom": 388,
      "gen": 389,
      "gra": 390,
      "omology": 391,
      "No": 392,
      "ension": 393,
      "erent": 394,
      "from": 395,
      "}(\\": 396,
      "sume": 397,
      "ted": 398,
      "ves": 399,
      "lon": 400,
      "ere": 401,
      "ich": 402,
      "X_": 403,
      "exis": 404,
      "sition": 405,
      "rc": 406,
      "maps": 407,
      "circ": 408,
      "mb": 409,
      "functor": 410,
      "which": 411,
      "ince": 412,
      ").": 413,
      "ff": 414,
      "This": 415,
      "coherent": 416,
      "varphi": 417,
      "modules": 418,
      "position": 419,
      "})$": 420,
      "\\\\": 421,
      "Hence": 422,
      "so": 423,
      "overline": 424,
      "_j": 425,
      "ome": 426,
      "do": 427,
      "gener": 428,
      "bi": 429,
      "ll": 430,
      "If": 431,
      "isomorphism": 432,
      "}\\": 433,
      "')": 434,
      "sheaf": 435,
      "\\'": 436,
      "complex": 437,
      "category": 438,
      "cl": 439,
      "sur": 440,
      "}^": 441,
      "mar": 442,
      "da": 443,
      "mark": 444,
      "objec": 445,
      "use": 446,
      "schemes": 447,
      "its": 448,
      "base": 449,
      "pl": 450,
      "stru": 451,
      "xi": 452,
      "}^\\": 453,
      "not": 454,
      "ose": 455,
      "As": 456,
      "mbda": 457,
      "Co": 458,
      "ide": 459,
      "chan": 460,
      "uni": 461,
      "des": 462,
      "long": 463,
      "eth": 464,
      "De": 465,
      "pe": 466,
      "rightarrow": 467,
      "mple": 468,
      "Thus": 469,
      "sho": 470,
      "change": 471,
      "topo": 472,
      "where": 473,
      "has": 474,
      "ties": 475,
      "exact": 476,
      "exists": 477,
      "Since": 478,
      "type": 479,
      "space": 480,
      "follows": 481,
      "eld": 482,
      "all": 483,
      "dia": 484,
      "mu": 485,
      "ial": 486,
      "case": 487,
      "bre": 488,
      "cover": 489,
      "matri": 490,
      "ree": 491,
      "erian": 492,
      "etherian": 493,
      "matrix": 494,
      "ample": 495,
      "field": 496,
      "redu": 497,
      "ad": 498,
      "separ": 499,
      "Al": 500,
      "kapp": 501,
      "kappa": 502,
      "pp": 503,
      "Coh": 504,
      "fibre": 505,
      "surjective": 506,
      "ical": 507,
      "ular": 508,
      "giv": 509,
      "ter": 510,
      "ext": 511,
      "mooth": 512,
      "equiv": 513,
      "}}": 514,
      "id": 515,
      "sa": 516,
      "point": 517,
      "show": 518,
      "smooth": 519,
      "ect": 520,
      "Noetherian": 521,
      "cap": 522,
      "ima": 523,
      "equival": 524,
      "may": 525,
      "tit": 526,
      "geq": 527,
      "ideal": 528,
      "gro": 529,
      "zer": 530,
      "shea": 531,
      "zero": 532,
      "any": 533,
      "Algebra": 534,
      "compact": 535,
      "sequ": 536,
      "ir": 537,
      "covering": 538,
      "resp": 539,
      "lus": 540,
      "oplus": 541,
      "'}": 542,
      "remark": 543,
      "tain": 544,
      "/\\": 545,
      "tex": 546,
      "site": 547,
      "big": 548,
      "ally": 549,
      "Hom": 550,
      "ne": 551,
      "textit": 552,
      "il": 553,
      "ut": 554,
      "longrightarrow": 555,
      "able": 556,
      "wed": 557,
      "dis": 558,
      "ian": 559,
      "abo": 560,
      "dimension": 561,
      "ved": 562,
      "cohomology": 563,
      "lta": 564,
      "presentation": 565,
      "ity": 566,
      "Pro": 567,
      "),": 568,
      "limits": 569,
      "very": 570,
      "gram": 571,
      "otimes": 572,
      "object": 573,
      "diagram": 574,
      "''": 575,
      "}).": 576,
      "sheaves": 577,
      "image": 578,
      "pi": 579,
      "constru": 580,
      "enti": 581,
      "stack": 582,
      "uation": 583,
      "ded": 584,
      "sequence": 585,
      "commu": 586,
      "desc": 587,
      "above": 588,
      "ele": 589,
      "element": 590,
      "clu": 591,
      "_U": 592,
      "Sh": 593,
      "some": 594,
      "xy": 595,
      "produ": 596,
      "given": 597,
      "every": 598,
      "equal": 599,
      "For": 600,
      "wedge": 601,
      "}'": 602,
      "inver": 603,
      "U_i": 604,
      "Assume": 605,
      "od": 606,
      "xymatrix": 607,
      "tible": 608,
      "separated": 609,
      "erived": 610,
      "psi": 611,
      "rela": 612,
      "aces": 613,
      "orphisms": 614,
      "assume": 615,
      "following": 616,
      "^*\\": 617,
      "sum": 618,
      "injective": 619,
      "More": 620,
      "*\\": 621,
      "Morphisms": 622,
      "stri": 623,
      "eno": 624,
      "Spaces": 625,
      "ea": 626,
      "equation": 627,
      "example": 628,
      "red": 629,
      "ess": 630,
      "Sec": 631,
      "min": 632,
      "ization": 633,
      "will": 634,
      "ran": 635,
      "indu": 636,
      "tions": 637,
      "))": 638,
      "ull": 639,
      "To": 640,
      "inte": 641,
      "',": 642,
      "colim": 643,
      "tic": 644,
      "ting": 645,
      "cor": 646,
      "mersion": 647,
      "property": 648,
      "immersion": 649,
      "La": 650,
      "ral": 651,
      "i_": 652,
      "non": 653,
      "Ga": 654,
      "more": 655,
      "vers": 656,
      "Lambda": 657,
      "represent": 658,
      "conclu": 659,
      "Gamma": 660,
      "Section": 661,
      "ced": 662,
      "sy": 663,
      "integ": 664,
      "finition": 665,
      "under": 666,
      "Definition": 667,
      "pri": 668,
      "reg": 669,
      "div": 670,
      "$(\\": 671,
      "ause": 672,
      "ft": 673,
      "}$,": 674,
      "theore": 675,
      "prove": 676,
      "impl": 677,
      "conclude": 678,
      "regular": 679,
      "Con": 680,
      "hence": 681,
      "Ome": 682,
      "Omega": 683,
      "ish": 684,
      "sider": 685,
      "ication": 686,
      "ste": 687,
      "formal": 688,
      "perf": 689,
      "deg": 690,
      "respon": 691,
      "dire": 692,
      "correspon": 693,
      "beta": 694,
      "ffic": 695,
      "Re": 696,
      "extension": 697,
      "ard": 698,
      "]$": 699,
      "ppf": 700,
      "relative": 701,
      "fppf": 702,
      "hold": 703,
      "free": 704,
      "_k": 705,
      "each": 706,
      "ang": 707,
      "left": 708,
      "ense": 709,
      "properties": 710,
      "bec": 711,
      "because": 712,
      "univers": 713,
      "only": 714,
      "delta": 715,
      "X_i": 716,
      "Hom_": 717,
      "cho": 718,
      "get": 719,
      "other": 720,
      ")$,": 721,
      "back": 722,
      "cle": 723,
      "composition": 724,
      "lambda": 725,
      "U_": 726,
      "ints": 727,
      "x_1": 728,
      "pull": 729,
      "isor": 730,
      "^{\\": 731,
      "enote": 732,
      "cup": 733,
      "ormal": 734,
      "find": 735,
      "otimes_R": 736,
      "perfect": 737,
      "_Y": 738,
      "It": 739,
      "mi": 740,
      "fir": 741,
      "group": 742,
      "first": 743,
      "form": 744,
      "ces": 745,
      "Sch": 746,
      "derived": 747,
      "same": 748,
      "product": 749,
      "ure": 750,
      "ort": 751,
      "suffic": 752,
      "})$.": 753,
      "points": 754,
      "tin": 755,
      "}|": 756,
      "tau": 757,
      "pose": 758,
      "implies": 759,
      "leq": 760,
      "categories": 761,
      "restri": 762,
      "diff": 763,
      "nolimits": 764,
      "equivalent": 765,
      "sul": 766,
      "char": 767,
      "resul": 768,
      "ding": 769,
      "pr": 770,
      "ay": 771,
      "Cho": 772,
      "rings": 773,
      "quad": 774,
      "ous": 775,
      "upo": 776,
      "condi": 777,
      "suffices": 778,
      "}/": 779,
      "fa": 780,
      "sig": 781,
      "proposition": 782,
      "sites": 783,
      "charact": 784,
      "Ob": 785,
      "obtain": 786,
      "}[": 787,
      "prime": 788,
      "mapsto": 789,
      "one": 790,
      "disc": 791,
      "sit": 792,
      "holds": 793,
      "pullback": 794,
      "equivalence": 795,
      "representable": 796,
      "ential": 797,
      "$\\{": 798,
      "ith": 799,
      "normal": 800,
      "nolimits_": 801,
      "wo": 802,
      "integral": 803,
      ")}": 804,
      "}$-": 805,
      "projective": 806,
      "wor": 807,
      "prod": 808,
      "commuta": 809,
      "belian": 810,
      "reduci": 811,
      "igh": 812,
      "onical": 813,
      "gamma": 814,
      "abelian": 815,
      "canonical": 816,
      "ful": 817,
      "situation": 818,
      "reducible": 819,
      "\\}": 820,
      "A_": 821,
      "irreducible": 822,
      "eck": 823,
      "graded": 824,
      "ker": 825,
      "topology": 826,
      "divisor": 827,
      "a_": 828,
      "sump": 829,
      "into": 830,
      "ise": 831,
      "'$.": 832,
      "dual": 833,
      "also": 834,
      "contain": 835,
      "whose": 836,
      "}^{": 837,
      "vi": 838,
      "\\{": 839,
      "fac": 840,
      "differ": 841,
      "S_": 842,
      "jo": 843,
      "Choose": 844,
      "D_": 845,
      "*}": 846,
      "topolog": 847,
      "ser": 848,
      "ame": 849,
      "cally": 850,
      "finitely": 851,
      "m_": 852,
      "otimes_A": 853,
      "groupo": 854,
      "omega": 855,
      "geom": 856,
      "direct": 857,
      "assump": 858,
      "construction": 859,
      "defined": 860,
      "ak": 861,
      "lying": 862,
      "commutative": 863,
      "tran": 864,
      "tors": 865,
      "val": 866,
      "g_": 867,
      "tori": 868,
      "inverse": 869,
      "bigoplus": 870,
      "Consider": 871,
      "theorem": 872,
      "geomet": 873,
      "sat": 874,
      "f_i": 875,
      "Cohomology": 876,
      "general": 877,
      "joint": 878,
      "uniqu": 879,
      "descent": 880,
      "Sup": 881,
      "stem": 882,
      "soci": 883,
      "system": 884,
      "x_": 885,
      "ringed": 886,
      "ugh": 887,
      "differential": 888,
      "eta": 889,
      "sigma": 890,
      "f_1": 891,
      "associ": 892,
      "objects": 893,
      "complexes": 894,
      "]^": 895,
      "fied": 896,
      "commute": 897,
      "generated": 898,
      "Note": 899,
      "jection": 900,
      "ij": 901,
      "complete": 902,
      "our": 903,
      "mpl": 904,
      "say": 905,
      "geometri": 906,
      "amely": 907,
      "j_": 908,
      "two": 909,
      "tra": 910,
      "pu": 911,
      "ick": 912,
      "check": 913,
      "Lemmas": 914,
      "fact": 915,
      "sol": 916,
      "sets": 917,
      "sing": 918,
      "\\}$": 919,
      "M_": 920,
      "_S": 921,
      "QCoh": 922,
      "hom": 923,
      "Categor": 924,
      "ten": 925,
      "Categories": 926,
      "ids": 927,
      "restriction": 928,
      "Set": 929,
      "ant": 930,
      "reduced": 931,
      "clas": 932,
      "stacks": 933,
      "triang": 934,
      "universally": 935,
      "eriz": 936,
      "rite": 937,
      "ue": 938,
      "boun": 939,
      "_x": 940,
      "pa": 941,
      "spec": 942,
      "exist": 943,
      "corresponding": 944,
      "characteriz": 945,
      "ness": 946,
      "clear": 947,
      "degree": 948,
      "satis": 949,
      "these": 950,
      "omorph": 951,
      "result": 952,
      "times_S": 953,
      "Omega_": 954,
      "quo": 955,
      "underline": 956,
      "state": 957,
      "omit": 958,
      "functors": 959,
      "spect": 960,
      "since": 961,
      "nu": 962,
      "nel": 963,
      "invertible": 964,
      "kernel": 965,
      "Se": 966,
      "Delta": 967,
      "omorphic": 968,
      "forma": 969,
      "R_": 970,
      "Mod": 971,
      "ary": 972,
      "onent": 973,
      "inter": 974,
      "emp": 975,
      "component": 976,
      "plac": 977,
      "associated": 978,
      "empty": 979,
      "times_Y": 980,
      "x_n": 981,
      "discus": 982,
      "Sche": 983,
      "man": 984,
      "construc": 985,
      "neigh": 986,
      "Schemes": 987,
      "x_i": 988,
      "partic": 989,
      "particular": 990,
      "udo": 991,
      "seudo": 992,
      "ke": 993,
      "bour": 994,
      "cong": 995,
      "Remark": 996,
      "pseudo": 997,
      "supp": 998,
      "smal": 999,
      "Namely": 1000,
      "li": 1001,
      "icial": 1002,
      "statement": 1003,
      "unique": 1004,
      "psilon": 1005,
      "assumption": 1006,
      "neighbour": 1007,
      "neighbourho": 1008,
      "_p": 1009,
      "epsilon": 1010,
      "'/": 1011,
      "cise": 1012,
      "special": 1013,
      "rami": 1014,
      "ramified": 1015,
      "homo": 1016,
      "colimit": 1017,
      "nonzero": 1018,
      "'}$": 1019,
      "topological": 1020,
      "solu": 1021,
      "subscheme": 1022,
      "denote": 1023,
      "dep": 1024,
      "mon": 1025,
      "commutes": 1026,
      "nec": 1027,
      "define": 1028,
      "cture": 1029,
      "_A": 1030,
      "Y_": 1031,
      "mean": 1032,
      "simpl": 1033,
      "out": 1034,
      "trans": 1035,
      "tient": 1036,
      "minus": 1037,
      "replac": 1038,
      "Proposition": 1039,
      "condition": 1040,
      "')$": 1041,
      "izing": 1042,
      "$|": 1043,
      "Mor": 1044,
      "limit": 1045,
      "Suppose": 1046,
      "structure": 1047,
      "quotient": 1048,
      "unramified": 1049,
      "Zar": 1050,
      "Proper": 1051,
      "til": 1052,
      "choose": 1053,
      "``": 1054,
      "setminus": 1055,
      "identi": 1056,
      "bounded": 1057,
      "isomorphic": 1058,
      "}),": 1059,
      "times_X": 1060,
      "cts": 1061,
      "tilde": 1062,
      "There": 1063,
      "ites": 1064,
      "contin": 1065,
      "Sites": 1066,
      "characterize": 1067,
      "go": 1068,
      "top": 1069,
      "hand": 1070,
      "Moreover": 1071,
      "wer": 1072,
      "Rf_": 1073,
      "L_": 1074,
      "small": 1075,
      "_Z": 1076,
      "serve": 1077,
      "ired": 1078,
      "formation": 1079,
      "simplicial": 1080,
      "adjoint": 1081,
      "tru": 1082,
      "T_i": 1083,
      "pair": 1084,
      "fibres": 1085,
      "groupoids": 1086,
      "tom": 1087,
      "/(": 1088,
      "blow": 1089,
      "true": 1090,
      "i_0": 1091,
      "completion": 1092,
      "bigcup": 1093,
      "fication": 1094,
      "ithful": 1095,
      "Properties": 1096,
      "fil": 1097,
      "faithful": 1098,
      "king": 1099,
      "tation": 1100,
      "neighbourhood": 1101,
      "equality": 1102,
      "}'$": 1103,
      "elements": 1104,
      "ig": 1105,
      "_V": 1106,
      "bet": 1107,
      "Z_": 1108,
      "descend": 1109,
      "sections": 1110,
      "cur": 1111,
      "means": 1112,
      "geometrically": 1113,
      "Ker": 1114,
      "functori": 1115,
      "part": 1116,
      "desired": 1117,
      "continu": 1118,
      "cite": 1119,
      "|$": 1120,
      "sor": 1121,
      "arly": 1122,
      "localization": 1123,
      "stal": 1124,
      "generic": 1125,
      ".,": 1126,
      "using": 1127,
      "eaf": 1128,
      "Sheaf": 1129,
      "lif": 1130,
      "short": 1131,
      "mul": 1132,
      "push": 1133,
      "weak": 1134,
      "ented": 1135,
      "presented": 1136,
      ".\\": 1137,
      "power": 1138,
      "fp": 1139,
      "An": 1140,
      "connec": 1141,
      "triangle": 1142,
      "maxi": 1143,
      "maximal": 1144,
      "continuous": 1145,
      "rough": 1146,
      "ideals": 1147,
      "secon": 1148,
      "second": 1149,
      "medi": 1150,
      "van": 1151,
      "functorial": 1152,
      "mediate": 1153,
      "tensor": 1154,
      "Denote": 1155,
      "support": 1156,
      "separable": 1157,
      "$[": 1158,
      "Derived": 1159,
      "main": 1160,
      "compa": 1161,
      "cent": 1162,
      "after": 1163,
      "dec": 1164,
      "Ext": 1165,
      "car": 1166,
      "formally": 1167,
      "connected": 1168,
      "through": 1169,
      "sure": 1170,
      "B_": 1171,
      "ni": 1172,
      "fies": 1173,
      "Sit": 1174,
      "Situation": 1175,
      "products": 1176,
      "stand": 1177,
      "forw": 1178,
      "vial": 1179,
      "laim": 1180,
      "algebras": 1181,
      "ercise": 1182,
      "ight": 1183,
      "ensel": 1184,
      "ag": 1185,
      "iant": 1186,
      "words": 1187,
      "ument": 1188,
      "dot": 1189,
      "solution": 1190,
      "sup": 1191,
      "ie": 1192,
      "tional": 1193,
      "eng": 1194,
      "ges": 1195,
      "trivial": 1196,
      "stalk": 1197,
      "hensel": 1198,
      "when": 1199,
      "Here": 1200,
      "_r": 1201,
      "}/\\": 1202,
      "dualizing": 1203,
      "induces": 1204,
      "icken": 1205,
      "vanish": 1206,
      "topoi": 1207,
      "fy": 1208,
      "ween": 1209,
      "ength": 1210,
      "consider": 1211,
      "between": 1212,
      "strict": 1213,
      "thicken": 1214,
      "Ex": 1215,
      "length": 1216,
      "mber": 1217,
      "Observe": 1218,
      "exercise": 1219,
      "V_": 1220,
      "eff": 1221,
      "term": 1222,
      "call": 1223,
      "multi": 1224,
      "inf": 1225,
      "sian": 1226,
      "ong": 1227,
      "tesian": 1228,
      "forward": 1229,
      "isomorphisms": 1230,
      "gives": 1231,
      "mini": 1232,
      "ective": 1233,
      "claim": 1234,
      "homomorphism": 1235,
      "ign": 1236,
      "cartesian": 1237,
      "]$.": 1238,
      "omial": 1239,
      "))$": 1240,
      "onal": 1241,
      "way": 1242,
      "induction": 1243,
      "{(": 1244,
      "poly": 1245,
      "standard": 1246,
      "minimal": 1247,
      "teri": 1248,
      "gonal": 1249,
      "qc": 1250,
      "compu": 1251,
      "align": 1252,
      "tail": 1253,
      "]^{": 1254,
      "See": 1255,
      "write": 1256,
      "ple": 1257,
      "factors": 1258,
      "thickening": 1259,
      "ative": 1260,
      ")(": 1261,
      "tal": 1262,
      "universal": 1263,
      "closure": 1264,
      "cy": 1265,
      "well": 1266,
      "hy": 1267,
      "immediate": 1268,
      "polyn": 1269,
      "contained": 1270,
      "[\\": 1271,
      "K_": 1272,
      "h_": 1273,
      "polynomial": 1274,
      "does": 1275,
      "xrightarrow": 1276,
      "Fin": 1277,
      "now": 1278,
      "groups": 1279,
      "St": 1280,
      "diagonal": 1281,
      "wide": 1282,
      "homotop": 1283,
      "star": 1284,
      "induced": 1285,
      "omitted": 1286,
      "effective": 1287,
      "tered": 1288,
      "ished": 1289,
      "order": 1290,
      "infty": 1291,
      "K_n": 1292,
      "but": 1293,
      "Com": 1294,
      "tiv": 1295,
      "arg": 1296,
      "both": 1297,
      "formul": 1298,
      "orem": 1299,
      "rr": 1300,
      "cted": 1301,
      "shows": 1302,
      "torsion": 1303,
      "fo": 1304,
      "mapp": 1305,
      "constructible": 1306,
      "ize": 1307,
      "apply": 1308,
      "const": 1309,
      "descri": 1310,
      "intersection": 1311,
      "Giv": 1312,
      "components": 1313,
      "ieties": 1314,
      "erence": 1315,
      "notation": 1316,
      "Given": 1317,
      "Mor_": 1318,
      "Theorem": 1319,
      "disting": 1320,
      "coprod": 1321,
      "lit": 1322,
      "conditions": 1323,
      "distingu": 1324,
      "compatible": 1325,
      "ses": 1326,
      "iski": 1327,
      "multipl": 1328,
      "_f": 1329,
      "Stack": 1330,
      "cycle": 1331,
      "satisfies": 1332,
      "divisors": 1333,
      "rational": 1334,
      "Stacks": 1335,
      "ab": 1336,
      "function": 1337,
      "_T": 1338,
      "fields": 1339,
      "lob": 1340,
      "graph": 1341,
      "discussion": 1342,
      "rie": 1343,
      "Y_i": 1344,
      "_m": 1345,
      "glob": 1346,
      "ving": 1347,
      "constant": 1348,
      "class": 1349,
      "distinguished": 1350,
      "proves": 1351,
      "tomic": 1352,
      "ntomic": 1353,
      "fibred": 1354,
      "Finally": 1355,
      "syntomic": 1356,
      "spectral": 1357,
      "1_": 1358,
      "work": 1359,
      "presheaf": 1360,
      "{-": 1361,
      "gl": 1362,
      "X_0": 1363,
      "pushforward": 1364,
      ")^": 1365,
      "dense": 1366,
      "V_i": 1367,
      "filtered": 1368,
      "mapping": 1369,
      "F_": 1370,
      "S_i": 1371,
      "number": 1372,
      "opens": 1373,
      "integer": 1374,
      "resi": 1375,
      "'$,": 1376,
      ")]": 1377,
      "tivity": 1378,
      "tent": 1379,
      "alo": 1380,
      "ilarly": 1381,
      "vanishing": 1382,
      "sible": 1383,
      "(-": 1384,
      "addi": 1385,
      "_3": 1386,
      "squa": 1387,
      "tails": 1388,
      "valuation": 1389,
      "cri": 1390,
      "}}$": 1391,
      "}^{\\": 1392,
      "finish": 1393,
      "square": 1394,
      "coverings": 1395,
      "n_": 1396,
      "note": 1397,
      "domain": 1398,
      "ences": 1399,
      "resolution": 1400,
      "compare": 1401,
      "due": 1402,
      "depth": 1403,
      "mily": 1404,
      "family": 1405,
      "nih": 1406,
      "NL_": 1407,
      "fpqc": 1408,
      "glue": 1409,
      "annih": 1410,
      "Zariski": 1411,
      "what": 1412,
      "W_": 1413,
      "ther": 1414,
      "directed": 1415,
      "Ar": 1416,
      "Proof": 1417,
      "tial": 1418,
      "Recall": 1419,
      "shrie": 1420,
      "shriek": 1421,
      "])": 1422,
      "On": 1423,
      "surjection": 1424,
      "weakly": 1425,
      "Example": 1426,
      "ata": 1427,
      "X_1": 1428,
      "formula": 1429,
      "sense": 1430,
      "urce": 1431,
      "source": 1432,
      "V_j": 1433,
      "ven": 1434,
      "replace": 1435,
      "global": 1436,
      "union": 1437,
      "lift": 1438,
      "varphi_": 1439,
      "ot": 1440,
      "au": 1441,
      "X_s": 1442,
      "split": 1443,
      "contra": 1444,
      "inclu": 1445,
      "arp": 1446,
      "preser": 1447,
      "adic": 1448,
      "ast": 1449,
      "ell": 1450,
      "sharp": 1451,
      "monomorphism": 1452,
      "sis": 1453,
      "izer": 1454,
      "A_i": 1455,
      "Im": 1456,
      "theoretic": 1457,
      "defines": 1458,
      "linear": 1459,
      "exactly": 1460,
      "cdot": 1461,
      "para": 1462,
      "homotopy": 1463,
      "amal": 1464,
      "primes": 1465,
      "existence": 1466,
      "U_j": 1467,
      "residue": 1468,
      "tier": 1469,
      "corresponds": 1470,
      "T_": 1471,
      "valu": 1472,
      "*(": 1473,
      "pla": 1474,
      "subcategory": 1475,
      "Car": 1476,
      "comes": 1477,
      "led": 1478,
      "uld": 1479,
      "variant": 1480,
      "ates": 1481,
      "})$,": 1482,
      "longmapsto": 1483,
      "Write": 1484,
      "Z_i": 1485,
      "c_1": 1486,
      "Right": 1487,
      "bed": 1488,
      "side": 1489,
      "groupoid": 1490,
      "criteri": 1491,
      "ive": 1492,
      "tar": 1493,
      "sim": 1494,
      "A_1": 1495,
      "Pic": 1496,
      "hat": 1497,
      "arrows": 1498,
      "inclusion": 1499,
      "target": 1500,
      "rees": 1501,
      "many": 1502,
      "argument": 1503,
      "Cartier": 1504,
      "nonempty": 1505,
      "bit": 1506,
      "Rightarrow": 1507,
      "odule": 1508,
      "eness": 1509,
      "rodu": 1510,
      "}^{-": 1511,
      "um": 1512,
      "Tot": 1513,
      "Ab": 1514,
      "verse": 1515,
      "]/(": 1516,
      "rea": 1517,
      "und": 1518,
      "*}\\": 1519,
      "know": 1520,
      "H_": 1521,
      "Par": 1522,
      "reference": 1523,
      "subspace": 1524,
      "via": 1525,
      "g_i": 1526,
      "colimits": 1527,
      "blowup": 1528,
      "mid": 1529,
      "theta": 1530,
      "appl": 1531,
      "compute": 1532,
      "Des": 1533,
      "inci": 1534,
      "'(": 1535,
      "ou": 1536,
      "ice": 1537,
      "choice": 1538,
      "p_": 1539,
      "vious": 1540,
      "mis": 1541,
      "depend": 1542,
      "I_": 1543,
      "a_i": 1544,
      "f_r": 1545,
      "projection": 1546,
      "most": 1547,
      "_R": 1548,
      "rank": 1549,
      "M_i": 1550,
      "details": 1551,
      "potent": 1552,
      "dim_": 1553,
      "X_n": 1554,
      "pi_": 1555,
      "frac": 1556,
      "tau_": 1557,
      "coun": 1558,
      "Topo": 1559,
      "amalg": 1560,
      "Descent": 1561,
      "[(": 1562,
      "princi": 1563,
      "*$": 1564,
      "widetilde": 1565,
      "xiom": 1566,
      "specialization": 1567,
      "col": 1568,
      "partial": 1569,
      "pure": 1570,
      "genera": 1571,
      "results": 1572,
      "fully": 1573,
      "constructed": 1574,
      "below": 1575,
      "Af": 1576,
      "construct": 1577,
      "paragraph": 1578,
      "classes": 1579,
      "rete": 1580,
      "^!": 1581,
      "presheaves": 1582,
      "bar": 1583,
      "inde": 1584,
      "lea": 1585,
      "ju": 1586,
      "vee": 1587,
      "otimes_k": 1588,
      "vie": 1589,
      "rule": 1590,
      "geometric": 1591,
      "SheafHom": 1592,
      "hyper": 1593,
      "vec": 1594,
      "curves": 1595,
      "satisfy": 1596,
      "annihil": 1597,
      "termin": 1598,
      "suppose": 1599,
      "s_": 1600,
      "tical": 1601,
      "enough": 1602,
      "final": 1603,
      "s_i": 1604,
      "read": 1605,
      "send": 1606,
      "@{": 1607,
      "discrete": 1608,
      "differentials": 1609,
      "Homology": 1610,
      "criterion": 1611,
      "colim_": 1612,
      "normalization": 1613,
      "odules": 1614,
      "introdu": 1615,
      "extensions": 1616,
      "]{": 1617,
      "^*(": 1618,
      "ern": 1619,
      "Artin": 1620,
      "pos": 1621,
      "thing": 1622,
      "tives": 1623,
      "}')": 1624,
      "angent": 1625,
      "reader": 1626,
      "relation": 1627,
      "terms": 1628,
      "factori": 1629,
      "here": 1630,
      "'})": 1631,
      "total": 1632,
      "omega_": 1633,
      "emptyset": 1634,
      "henselian": 1635,
      "tangent": 1636,
      "zation": 1637,
      "character": 1638,
      "SheafHom_": 1639,
      "fraction": 1640,
      "factorization": 1641,
      ")$-": 1642,
      "Sets": 1643,
      "em": 1644,
      "along": 1645,
      "ized": 1646,
      "ient": 1647,
      "images": 1648,
      "ided": 1649,
      "Sim": 1650,
      "b_": 1651,
      "mit": 1652,
      "After": 1653,
      ")\\": 1654,
      "a_1": 1655,
      "notion": 1656,
      "Div": 1657,
      "Ass": 1658,
      "]^{\\": 1659,
      "called": 1660,
      "x_0": 1661,
      "verif": 1662,
      "ulated": 1663,
      "immediately": 1664,
      "times_U": 1665,
      "replacing": 1666,
      "i_1": 1667,
      "localize": 1668,
      "just": 1669,
      "ink": 1670,
      "triangulated": 1671,
      "bas": 1672,
      "basis": 1673,
      "reduce": 1674,
      "reas": 1675,
      "inal": 1676,
      "Gro": 1677,
      "lar": 1678,
      "Tor": 1679,
      "urn": 1680,
      "Modules": 1681,
      "nat": 1682,
      "y_1": 1683,
      "decent": 1684,
      "imits": 1685,
      "varieties": 1686,
      "mitted": 1687,
      "extend": 1688,
      "Omitted": 1689,
      "^*$": 1690,
      "Part": 1691,
      "homology": 1692,
      "nd": 1693,
      "@<": 1694,
      "ically": 1695,
      "''$": 1696,
      "dimensional": 1697,
      "igher": 1698,
      "}{": 1699,
      "rd": 1700,
      "rum": 1701,
      "spectrum": 1702,
      "colle": 1703,
      "take": 1704,
      "turn": 1705,
      ">[": 1706,
      "bigoplus_": 1707,
      "apter": 1708,
      "ither": 1709,
      "}}(": 1710,
      "Limits": 1711,
      "Using": 1712,
      "_s": 1713,
      "seen": 1714,
      "disjoint": 1715,
      "K_0": 1716,
      "ory": 1717,
      "tr": 1718,
      "descending": 1719,
      "kes": 1720,
      "vector": 1721,
      "$}": 1722,
      ")^\\": 1723,
      "injec": 1724,
      ")}$": 1725,
      "B_i": 1726,
      "vertical": 1727,
      "rig": 1728,
      "definitions": 1729,
      "cat": 1730,
      "istic": 1731,
      "identity": 1732,
      "bin": 1733,
      "equalizer": 1734,
      "wn": 1735,
      "make": 1736,
      "[-": 1737,
      "higher": 1738,
      "os": 1739,
      "bigcup_": 1740,
      "n_i": 1741,
      "summa": 1742,
      "Proj": 1743,
      "contains": 1744,
      "cha": 1745,
      "sequences": 1746,
      "Sch_": 1747,
      "characteristic": 1748,
      "topologies": 1749,
      "12": 1750,
      "consis": 1751,
      "leads": 1752,
      "mathit": 1753,
      "ord": 1754,
      "flatness": 1755,
      "_B": 1756,
      "ss": 1757,
      "}]": 1758,
      "stalks": 1759,
      "good": 1760,
      "ass": 1761,
      "}))": 1762,
      "f_j": 1763,
      "det": 1764,
      "either": 1765,
      "chapter": 1766,
      "clic": 1767,
      "being": 1768,
      ")^{": 1769,
      "Supp": 1770,
      "isors": 1771,
      "Divisors": 1772,
      "manence": 1773,
      "}}(\\": 1774,
      "M_n": 1775,
      "c_": 1776,
      "used": 1777,
      "sums": 1778,
      "zul": 1779,
      "henselization": 1780,
      "oszul": 1781,
      "U_0": 1782,
      "permanence": 1783,
      "stein": 1784,
      ")}(": 1785,
      "omin": 1786,
      "A_0": 1787,
      "\\}$.": 1788,
      "acy": 1789,
      "g_1": 1790,
      "action": 1791,
      "missible": 1792,
      "!\\": 1793,
      "independ": 1794,
      "],": 1795,
      "axiom": 1796,
      "cour": 1797,
      "makes": 1798,
      "entially": 1799,
      "course": 1800,
      "_a": 1801,
      "Cohen": 1802,
      "i_p": 1803,
      "decom": 1804,
      "App": 1805,
      "_t": 1806,
      "_d": 1807,
      "y_i": 1808,
      "')$.": 1809,
      "Ho": 1810,
      "d_": 1811,
      "ger": 1812,
      "strictly": 1813,
      "Similarly": 1814,
      "_g": 1815,
      "wever": 1816,
      "lis": 1817,
      "sk": 1818,
      "versely": 1819,
      "collection": 1820,
      "Fir": 1821,
      "proetale": 1822,
      "essentially": 1823,
      "First": 1824,
      "multiplic": 1825,
      "admissible": 1826,
      "determin": 1827,
      "containing": 1828,
      "vari": 1829,
      "str": 1830,
      "bil": 1831,
      "think": 1832,
      "pal": 1833,
      "sheafi": 1834,
      "acyclic": 1835,
      "$).": 1836,
      "')^{-": 1837,
      "faithfully": 1838,
      "annihilated": 1839,
      "tically": 1840,
      "table": 1841,
      "immersions": 1842,
      "cof": 1843,
      "f_n": 1844,
      "m_i": 1845,
      "taking": 1846,
      "respect": 1847,
      "Conversely": 1848,
      "alois": 1849,
      "chain": 1850,
      "However": 1851,
      "')^*": 1852,
      "assumptions": 1853,
      "give": 1854,
      "U_1": 1855,
      "principal": 1856,
      "leadsto": 1857,
      "Next": 1858,
      "urther": 1859,
      "agree": 1860,
      "ual": 1861,
      "((\\": 1862,
      "Mac": 1863,
      "Pick": 1864,
      "additive": 1865,
      "genus": 1866,
      ">}[": 1867,
      "finishes": 1868,
      "A_n": 1869,
      "glueing": 1870,
      "multiplication": 1871,
      "index": 1872,
      "S_0": 1873,
      "simple": 1874,
      "domin": 1875,
      "how": 1876,
      "underlying": 1877,
      "Et": 1878,
      "aul": 1879,
      "}}^\\": 1880,
      "unit": 1881,
      "degrees": 1882,
      "Macaul": 1883,
      "Macaulay": 1884,
      "nil": 1885,
      "omega_X": 1886,
      "blowing": 1887,
      "arbit": 1888,
      "curve": 1889,
      "supset": 1890,
      "embed": 1891,
      "arbitr": 1892,
      "((": 1893,
      "generate": 1894,
      "going": 1895,
      "obs": 1896,
      "correspond": 1897,
      "foot": 1898,
      "footnote": 1899,
      "full": 1900,
      "Coker": 1901,
      "Lf": 1902,
      "Say": 1903,
      "chi": 1904,
      "unc": 1905,
      "independent": 1906,
      "ber": 1907,
      "projec": 1908,
      "proved": 1909,
      "loc": 1910,
      "stra": 1911,
      "auto": 1912,
      "ude": 1913,
      "ready": 1914,
      "stable": 1915,
      "sheafification": 1916,
      "play": 1917,
      "Cur": 1918,
      "]^\\": 1919,
      "win": 1920,
      "subsets": 1921,
      "arbitrary": 1922,
      "})}(": 1923,
      "Hom_R": 1924,
      "Curves": 1925,
      "'}(": 1926,
      ".)": 1927,
      "home": 1928,
      "enstein": 1929,
      "Var": 1930,
      "W_i": 1931,
      "Now": 1932,
      "X_2": 1933,
      "hor": 1934,
      "U_n": 1935,
      "p_i": 1936,
      "you": 1937,
      "ler": 1938,
      "P_": 1939,
      "already": 1940,
      "restrict": 1941,
      "))$.": 1942,
      "need": 1943,
      "Delta_": 1944,
      "vation": 1945,
      "proj": 1946,
      "algebraically": 1947,
      "^+": 1948,
      "lang": 1949,
      "q_": 1950,
      "gain": 1951,
      "slog": 1952,
      "cokernel": 1953,
      "slogan": 1954,
      "infinite": 1955,
      "triple": 1956,
      "suppor": 1957,
      "descrip": 1958,
      "nilpotent": 1959,
      "ampl": 1960,
      "^\\#": 1961,
      "precise": 1962,
      "divided": 1963,
      "--": 1964,
      "With": 1965,
      "bullet_": 1966,
      "versal": 1967,
      "m_A": 1968,
      "otimes_B": 1969,
      "center": 1970,
      "acobs": 1971,
      "acobson": 1972,
      "!}\\": 1973,
      "representing": 1974,
      "'',": 1975,
      "alog": 1976,
      "strong": 1977,
      "logical": 1978,
      "homeomorphism": 1979,
      "1ex": 1980,
      "Y_0": 1981,
      "summand": 1982,
      "itude": 1983,
      "horiz": 1984,
      ")[": 1985,
      "enary": 1986,
      "analog": 1987,
      "atum": 1988,
      "setting": 1989,
      "works": 1990,
      "amplitude": 1991,
      "cument": 1992,
      ",\\": 1993,
      "|$.": 1994,
      "ention": 1995,
      "systems": 1996,
      "exce": 1997,
      "invariant": 1998,
      "\\{\\": 1999,
      "played": 2000,
      "data": 2001,
      "|\\": 2002,
      "mod": 2003,
      "Algebraic": 2004,
      "would": 2005,
      "description": 2006,
      "horizon": 2007,
      "noetherian": 2008,
      "duality": 2009,
      "transform": 2010,
      "catenary": 2011,
      "Varieties": 2012,
      "last": 2013,
      "horizontal": 2014,
      "down": 2015,
      "x_2": 2016,
      "{/": 2017,
      "appro": 2018,
      "cases": 2019,
      "bly": 2020,
      "injectives": 2021,
      "hypercovering": 2022,
      "wise": 2023,
      "alter": 2024,
      "eous": 2025,
      "natur": 2026,
      "Z_1": 2027,
      "sign": 2028,
      "'}$.": 2029,
      "homogen": 2030,
      "subschemes": 2031,
      "displayed": 2032,
      "CM": 2033,
      "fines": 2034,
      "elementary": 2035,
      "different": 2036,
      "datum": 2037,
      "similarly": 2038,
      "decomposition": 2039,
      "ually": 2040,
      "verification": 2041,
      "chow": 2042,
      "x_r": 2043,
      "_W": 2044,
      "further": 2045,
      "lci": 2046,
      "alpha_": 2047,
      "Deformation": 2048,
      "discussed": 2049,
      "theory": 2050,
      "about": 2051,
      "functoriality": 2052,
      "dic": 2053,
      "represented": 2054,
      "trace": 2055,
      "homogeneous": 2056,
      "constructions": 2057,
      "ys": 2058,
      "II": 2059,
      "rho": 2060,
      "appli": 2061,
      "generators": 2062,
      "applied": 2063,
      "without": 2064,
      "indic": 2065,
      "uniqueness": 2066,
      "R_i": 2067,
      "effic": 2068,
      "agata": 2069,
      "implication": 2070,
      "omega_A": 2071,
      "efficient": 2072,
      "usu": 2073,
      "modu": 2074,
      "transition": 2075,
      "ways": 2076,
      "natural": 2077,
      "CH": 2078,
      "pairs": 2079,
      "submodule": 2080,
      "sends": 2081,
      "NL": 2082,
      "endo": 2083,
      "coefficient": 2084,
      "pusho": 2085,
      "ities": 2086,
      "applies": 2087,
      "sep": 2088,
      "e_1": 2089,
      "mention": 2090,
      "y_": 2091,
      "singular": 2092,
      "hypo": 2093,
      "nonzerodivisor": 2094,
      "supported": 2095,
      "Koszul": 2096,
      "deformation": 2097,
      "epsilon_": 2098,
      "Of": 2099,
      "e_": 2100,
      "large": 2101,
      "A_2": 2102,
      "M_1": 2103,
      "fix": 2104,
      "ird": 2105,
      "Formal": 2106,
      "widehat": 2107,
      "W_j": 2108,
      "opp": 2109,
      "possible": 2110,
      "again": 2111,
      "times_B": 2112,
      "bility": 2113,
      "struction": 2114,
      "consisting": 2115,
      "p_1": 2116,
      "}})": 2117,
      "contradic": 2118,
      "Topology": 2119,
      "put": 2120,
      "ariant": 2121,
      "dotted": 2122,
      "deri": 2123,
      "too": 2124,
      "imp": 2125,
      "diagrams": 2126,
      "filtra": 2127,
      "C_i": 2128,
      "Dual": 2129,
      "cech": 2130,
      "h_U": 2131,
      "endi": 2132,
      "cocontinuous": 2133,
      "X_y": 2134,
      "rang": 2135,
      "cycles": 2136,
      "document": 2137,
      "2w": 2138,
      "But": 2139,
      "fit": 2140,
      "xima": 2141,
      "functions": 2142,
      "satisfying": 2143,
      "thickenings": 2144,
      "reason": 2145,
      "{+": 2146,
      "Fi": 2147,
      "setup": 2148,
      "[[": 2149,
      "'|": 2150,
      "nM": 2151,
      "next": 2152,
      "{\\{": 2153,
      "Ch": 2154,
      "third": 2155,
      "bran": 2156,
      "theoretically": 2157,
      "prod_": 2158,
      "vcenter": 2159,
      "asser": 2160,
      "obvious": 2161,
      "branch": 2162,
      "Y_1": 2163,
      "ques": 2164,
      "f_2": 2165,
      "Jacobson": 2166,
      "bund": 2167,
      "compose": 2168,
      "bundle": 2169,
      "ech": 2170,
      "q_i": 2171,
      "transformation": 2172,
      "@{=": 2173,
      "Groupo": 2174,
      "bijective": 2175,
      "rangle": 2176,
      "Galois": 2177,
      "loo": 2178,
      "refore": 2179,
      "tification": 2180,
      "reduces": 2181,
      "langle": 2182,
      "E_": 2183,
      "gr": 2184,
      "pt": 2185,
      "simp": 2186,
      "simply": 2187,
      "F_i": 2188,
      "combin": 2189,
      "logies": 2190,
      "approxima": 2191,
      "Groupoids": 2192,
      "cotangent": 2193,
      "previous": 2194,
      "varphi_i": 2195,
      ")/\\": 2196,
      "identification": 2197,
      "Hom_A": 2198,
      "bound": 2199,
      "Shea": 2200,
      "CH_": 2201,
      "Some": 2202,
      "always": 2203,
      "ating": 2204,
      "codimension": 2205,
      "conven": 2206,
      "^{(": 2207,
      "mental": 2208,
      "Qu": 2209,
      "')^\\": 2210,
      "surjec": 2211,
      "pi_1": 2212,
      "application": 2213,
      "nal": 2214,
      "shr": 2215,
      "value": 2216,
      "ry": 2217,
      "version": 2218,
      "damental": 2219,
      "analogue": 2220,
      "max": 2221,
      "These": 2222,
      "alpha_i": 2223,
      "factor": 2224,
      "'})$": 2225,
      "phan": 2226,
      "mann": 2227,
      "Ad": 2228,
      "ysin": 2229,
      "phantom": 2230,
      "fore": 2231,
      "dou": 2232,
      "thendi": 2233,
      "viewed": 2234,
      "'$-": 2235,
      "Bec": 2236,
      "e_i": 2237,
      "valuative": 2238,
      "thendieck": 2239,
      "Because": 2240,
      "torsor": 2241,
      "internal": 2242,
      "filtration": 2243,
      "cone": 2244,
      "Any": 2245,
      "plain": 2246,
      "usual": 2247,
      "Lo": 2248,
      "inking": 2249,
      "Sheaves": 2250,
      "namely": 2251,
      "triangles": 2252,
      "Curvesstack": 2253,
      "$)": 2254,
      "B_1": 2255,
      "ods": 2256,
      "equi": 2257,
      "bijection": 2258,
      "times_T": 2259,
      "reduction": 2260,
      ")/": 2261,
      "even": 2262,
      "gu": 2263,
      "they": 2264,
      "ety": 2265,
      "lim_": 2266,
      ")|": 2267,
      "sitive": 2268,
      "affines": 2269,
      "preserving": 2270,
      "variety": 2271,
      "gysin": 2272,
      "double": 2273,
      "-\\'": 2274,
      "requ": 2275,
      "Chow": 2276,
      "$|\\": 2277,
      "purely": 2278,
      "*(\\": 2279,
      "chern": 2280,
      "Applying": 2281,
      "multiplicative": 2282,
      "than": 2283,
      "a_0": 2284,
      "gamma_": 2285,
      "b_i": 2286,
      "cd": 2287,
      "deno": 2288,
      "topos": 2289,
      "step": 2290,
      "discuss": 2291,
      "]$,": 2292,
      "often": 2293,
      "ba": 2294,
      "ftri": 2295,
      "pic": 2296,
      "ghtarrow": 2297,
      "R_f": 2298,
      "ftrightarrow": 2299,
      "_y": 2300,
      "dedu": 2301,
      "blem": 2302,
      "applying": 2303,
      "Topologies": 2304,
      "formations": 2305,
      "RS": 2306,
      "Follow": 2307,
      "derivation": 2308,
      "Hil": 2309,
      "cend": 2310,
      "asy": 2311,
      "explain": 2312,
      "fundamental": 2313,
      "X_T": 2314,
      "sigma_": 2315,
      "}''": 2316,
      "@{=}[": 2317,
      "RF": 2318,
      "ev": 2319,
      "ray": 2320,
      "embedding": 2321,
      "pushout": 2322,
      "IB": 2323,
      "T_0": 2324,
      "oper": 2325,
      "@{-": 2326,
      "turns": 2327,
      "endowed": 2328,
      "Follows": 2329,
      "lower": 2330,
      "}^\\#": 2331,
      "axioms": 2332,
      "otstra": 2333,
      "ivariant": 2334,
      "exactness": 2335,
      "gerbe": 2336,
      "dg": 2337,
      "pick": 2338,
      "rest": 2339,
      "f_c": 2340,
      "')^": 2341,
      "H_1": 2342,
      "am": 2343,
      "consequence": 2344,
      "relatively": 2345,
      "clearly": 2346,
      "splitting": 2347,
      "Picard": 2348,
      "countable": 2349,
      "otstrap": 2350,
      "el": 2351,
      "ether": 2352,
      "examples": 2353,
      "Gamma_": 2354,
      "Etale": 2355,
      "!$": 2356,
      "ep": 2357,
      "easy": 2358,
      "inseparable": 2359,
      "denoted": 2360,
      "bivariant": 2361,
      "easi": 2362,
      "Cle": 2363,
      "K_i": 2364,
      "a_n": 2365,
      "dal": 2366,
      "i_j": 2367,
      "}'}": 2368,
      "lls": 2369,
      "Gor": 2370,
      "^{+": 2371,
      "]^-": 2372,
      "Gorenstein": 2373,
      "Lg": 2374,
      "a_2": 2375,
      "complement": 2376,
      "terial": 2377,
      "generator": 2378,
      "another": 2379,
      "Comple": 2380,
      "K_1": 2381,
      "ade": 2382,
      "R_0": 2383,
      "quate": 2384,
      "assertion": 2385,
      "till": 2386,
      "coherence": 2387,
      "observe": 2388,
      "described": 2389,
      "hi": 2390,
      "precisely": 2391,
      "question": 2392,
      "problem": 2393,
      "those": 2394,
      "describe": 2395,
      "'')": 2396,
      "card": 2397,
      "want": 2398,
      "ilar": 2399,
      "view": 2400,
      "]/": 2401,
      "eq": 2402,
      "adequate": 2403,
      "t_1": 2404,
      "tag": 2405,
      "conormal": 2406,
      "essential": 2407,
      "neighbourhoods": 2408,
      "fitting": 2409,
      "cardinal": 2410,
      "Equ": 2411,
      "material": 2412,
      "add": 2413,
      "agrees": 2414,
      "artin": 2415,
      "_K": 2416,
      "kind": 2417,
      "inc": 2418,
      "X_k": 2419,
      "Also": 2420,
      "ii": 2421,
      "lemmas": 2422,
      "ations": 2423,
      "having": 2424,
      "spectra": 2425,
      "preserved": 2426,
      "s_1": 2427,
      "was": 2428,
      "sum_": 2429,
      "_P": 2430,
      "And": 2431,
      "shrinking": 2432,
      "E_2": 2433,
      "U_2": 2434,
      "r_": 2435,
      "modi": 2436,
      "cohomo": 2437,
      "T_1": 2438,
      "Y_n": 2439,
      "idem": 2440,
      "necess": 2441,
      "locus": 2442,
      "xes": 2443,
      "still": 2444,
      "Leftrightarrow": 2445,
      "classi": 2446,
      "idempotent": 2447,
      "])$": 2448,
      "happ": 2449,
      "w_i": 2450,
      "Spf": 2451,
      "Clearly": 2452,
      "]}": 2453,
      "title": 2454,
      "almost": 2455,
      "happen": 2456,
      "Ha": 2457,
      "Nagata": 2458,
      "gg": 2459,
      "oid": 2460,
      "refle": 2461,
      "m_R": 2462,
      "E_i": 2463,
      "..": 2464,
      "b_1": 2465,
      "ever": 2466,
      "})}": 2467,
      "Complexes": 2468,
      "deduce": 2469,
      "nar": 2470,
      "ze": 2471,
      "defo": 2472,
      "eqnar": 2473,
      "eqnarray": 2474,
      ")^{\\": 2475,
      "done": 2476,
      "ift": 2477,
      "identify": 2478,
      "contradiction": 2479,
      "Tak": 2480,
      "{}": 2481,
      "onto": 2482,
      "similar": 2483,
      "C_": 2484,
      "DM": 2485,
      "compo": 2486,
      "compar": 2487,
      "should": 2488,
      ")^{-": 2489,
      "cut": 2490,
      "Cov": 2491,
      "stack_": 2492,
      "strongly": 2493,
      "E_1": 2494,
      "tric": 2495,
      "pi_X": 2496,
      "rel": 2497,
      "least": 2498,
      "refer": 2499,
      "reasing": 2500,
      "Aut": 2501,
      "Ser": 2502,
      "thesis": 2503,
      "}|$": 2504,
      "Mit": 2505,
      "ffler": 2506,
      "{+}(": 2507,
      "Serre": 2508,
      "shown": 2509,
      "Comp": 2510,
      "Leffler": 2511,
      "Mittag": 2512,
      "bigcap": 2513,
      "}',": 2514,
      "}'$.": 2515,
      "ably": 2516,
      "na": 2517,
      "oned": 2518,
      "tells": 2519,
      "projections": 2520,
      "bmod": 2521,
      "sometimes": 2522,
      "stead": 2523,
      "says": 2524,
      "}}$.": 2525,
      "uses": 2526,
      "cohomological": 2527,
      "sta": 2528,
      "cording": 2529,
      "commutativity": 2530,
      "Is": 2531,
      "sive": 2532,
      "said": 2533,
      "compati": 2534,
      "coprod_": 2535,
      "trunc": 2536,
      "oneda": 2537,
      "'[": 2538,
      "Q_": 2539,
      "Sy": 2540,
      "Show": 2541,
      "times_Z": 2542,
      "')^*\\": 2543,
      "xi_i": 2544,
      "introduction": 2545,
      "PSh": 2546,
      "Rf": 2547,
      "Rj_": 2548,
      "_D": 2549,
      "}},": 2550,
      "three": 2551,
      "refine": 2552,
      "nodal": 2553,
      "meromorphic": 2554,
      "varian": 2555,
      "xi_": 2556,
      "approximation": 2557,
      "represents": 2558,
      "fixed": 2559,
      "Tr": 2560,
      "ori": 2561,
      "del": 2562,
      "@<-": 2563,
      "Hint": 2564,
      "I_n": 2565,
      "native": 2566,
      "colim_i": 2567,
      "directly": 2568,
      "_h": 2569,
      "model": 2570,
      "expl": 2571,
      "lifting": 2572,
      "!}": 2573,
      "introduced": 2574,
      "equalizers": 2575,
      "imply": 2576,
      "naive": 2577,
      "g_j": 2578,
      "}^*": 2579,
      "before": 2580,
      "characterization": 2581,
      "hypothesis": 2582,
      "Gal": 2583,
      "n_j": 2584,
      "sel": 2585,
      "homotopic": 2586,
      "defos": 2587,
      "single": 2588,
      "addition": 2589,
      "ison": 2590,
      "ards": 2591,
      "'},": 2592,
      "Be": 2593,
      "GA": 2594,
      "ris": 2595,
      "u_": 2596,
      "sic": 2597,
      "A_f": 2598,
      "Ler": 2599,
      "fg": 2600,
      "Leray": 2601,
      "J_": 2602,
      "mme": 2603,
      "dim_k": 2604,
      "leftarrow": 2605,
      "aug": 2606,
      "1_k": 2607,
      "'}}": 2608,
      "Z_2": 2609,
      "rect": 2610,
      "them": 2611,
      "X_j": 2612,
      "tw": 2613,
      "Construction": 2614,
      "augment": 2615,
      "M_2": 2616,
      "rows": 2617,
      "normalized": 2618,
      "Artinian": 2619,
      "manner": 2620,
      "Our": 2621,
      "input": 2622,
      "suit": 2623,
      "automorphism": 2624,
      "unction": 2625,
      "sending": 2626,
      "Y_j": 2627,
      "d_1": 2628,
      "ura": 2629,
      "{(\\": 2630,
      "''.": 2631,
      "cofi": 2632,
      "bert": 2633,
      ")}$.": 2634,
      "Flat": 2635,
      "c_i": 2636,
      "radi": 2637,
      "cosk": 2638,
      "start": 2639,
      "possi": 2640,
      "radical": 2641,
      "=$": 2642,
      "bli": 2643,
      "f_0": 2644,
      "generalization": 2645,
      "transcend": 2646,
      "equidimensional": 2647,
      "T_j": 2648,
      "a_X": 2649,
      "ji": 2650,
      "ograph": 2651,
      "univ": 2652,
      "solute": 2653,
      "gest": 2654,
      "epim": 2655,
      "comparison": 2656,
      "bliograph": 2657,
      "ila": 2658,
      "n_k": 2659,
      "zeta": 2660,
      "iteness": 2661,
      "symme": 2662,
      "bliography": 2663,
      "ach": 2664,
      "rise": 2665,
      "bibliography": 2666,
      "delta_": 2667,
      "found": 2668,
      "squares": 2669,
      "verify": 2670,
      "look": 2671,
      "_E": 2672,
      "Sym": 2673,
      "*}(": 2674,
      "m_1": 2675,
      "u_i": 2676,
      "$\\{\\": 2677,
      "adj": 2678,
      "pullbacks": 2679,
      "satisfied": 2680,
      "modification": 2681,
      "}]$": 2682,
      "size": 2683,
      "like": 2684,
      "Dualizing": 2685,
      "cannot": 2686,
      "dim_x": 2687,
      "twis": 2688,
      ".}": 2689,
      "N_": 2690,
      "cosimplicial": 2691,
      "Therefore": 2692,
      "}')$": 2693,
      "compositions": 2694,
      "increasing": 2695,
      "icit": 2696,
      "-)$": 2697,
      "->}[": 2698,
      "mil": 2699,
      "come": 2700,
      "absolute": 2701,
      "At": 2702,
      "Fit": 2703,
      "becomes": 2704,
      "umerical": 2705,
      "alpha_1": 2706,
      "solutions": 2707,
      "Isom": 2708,
      "augmentation": 2709,
      "adjunction": 2710,
      "leton": 2711,
      "defining": 2712,
      "bootstrap": 2713,
      "transformations": 2714,
      "coefficients": 2715,
      "bc": 2716,
      "finiteness": 2717,
      "distin": 2718,
      "statements": 2719,
      "homomorphisms": 2720,
      "except": 2721,
      "modulo": 2722,
      ")}(\\": 2723,
      "birational": 2724,
      "goes": 2725,
      "lifts": 2726,
      "Deformationcategory": 2727,
      "CH_k": 2728,
      "^{+}(\\": 2729,
      "their": 2730,
      "Weak": 2731,
      "Constructions": 2732,
      "ML": 2733,
      "later": 2734,
      "relations": 2735,
      "better": 2736,
      "From": 2737,
      "numerical": 2738,
      "velo": 2739,
      "denotes": 2740,
      "E_n": 2741,
      "remarks": 2742,
      "ator": 2743,
      "jk": 2744,
      "powers": 2745,
      "Grothendieck": 2746,
      "lisse": 2747,
      "${\\": 2748,
      "B_0": 2749,
      "S_1": 2750,
      "dd": 2751,
      "y_j": 2752,
      "less": 2753,
      "positive": 2754,
      "annihila": 2755,
      "arguments": 2756,
      "principle": 2757,
      "branches": 2758,
      "distinct": 2759,
      "T_n": 2760,
      "n_1": 2761,
      "pes": 2762,
      "ture": 2763,
      "cop": 2764,
      "times_k": 2765,
      "Apply": 2766,
      "h_i": 2767,
      "stu": 2768,
      "ices": 2769,
      "So": 2770,
      "cing": 2771,
      "c_2": 2772,
      "ctible": 2773,
      "d_i": 2774,
      "iso": 2775,
      "Combin": 2776,
      "suitable": 2777,
      "u_0": 2778,
      "remain": 2779,
      "compac": 2780,
      "elds": 2781,
      "quotients": 2782,
      "specializations": 2783,
      "self": 2784,
      "=$``": 2785,
      "he": 2786,
      "t_i": 2787,
      "gether": 2788,
      "Sections": 2789,
      "Condi": 2790,
      "famil": 2791,
      "integers": 2792,
      ")^*": 2793,
      "g_n": 2794,
      "content": 2795,
      "Psi": 2796,
      "generally": 2797,
      "conventions": 2798,
      "IM": 2799,
      "P_1": 2800,
      "refin": 2801,
      "ante": 2802,
      "together": 2803,
      "cocycle": 2804,
      "list": 2805,
      "Quot": 2806,
      "-)": 2807,
      "N_n": 2808,
      "x_j": 2809,
      "values": 2810,
      "Phi": 2811,
      "sli": 2812,
      "iner": 2813,
      "induce": 2814,
      "J_i": 2815,
      "forget": 2816,
      "cardinality": 2817,
      "annihilator": 2818,
      "Dec": 2819,
      "S2": 2820,
      "les": 2821,
      "ertain": 2822,
      "Weil": 2823,
      "computation": 2824,
      "@{..": 2825,
      "')$,": 2826,
      "Y_2": 2827,
      "Z_0": 2828,
      "Z_k": 2829,
      "y_m": 2830,
      "tho": 2831,
      "ham": 2832,
      "equals": 2833,
      "canonically": 2834,
      "requi": 2835,
      ")})": 2836,
      "dle": 2837,
      "z_1": 2838,
      "arante": 2839,
      "rity": 2840,
      "ijk": 2841,
      "middle": 2842,
      "guarante": 2843,
      "m_j": 2844,
      "semi": 2845,
      "m_B": 2846,
      "determines": 2847,
      "dominant": 2848,
      "alternative": 2849,
      "Local": 2850,
      "z_": 2851,
      "Theory": 2852,
      "indeed": 2853,
      "moduli": 2854,
      "WeakAss": 2855,
      "f_p": 2856,
      "nontrivial": 2857,
      "computed": 2858,
      "''}": 2859,
      "j_1": 2860,
      "}))$": 2861,
      "openness": 2862,
      "monic": 2863,
      "contractible": 2864,
      "signs": 2865,
      "Fields": 2866,
      "subsheaf": 2867,
      "parts": 2868,
      "possibly": 2869,
      "V_1": 2870,
      "adi": 2871,
      "ification": 2872,
      "assumed": 2873,
      "extends": 2874,
      "adically": 2875,
      "0_": 2876,
      "sage": 2877,
      "x_d": 2878,
      "cofinal": 2879,
      "@{..>}[": 2880,
      "$;": 2881,
      "oc": 2882,
      "X_K": 2883,
      "lies": 2884,
      "subspaces": 2885,
      "times_A": 2886,
      "upper": 2887,
      "Chern": 2888,
      "explicit": 2889,
      "certain": 2890,
      "ended": 2891,
      "equalities": 2892,
      "([": 2893,
      "Simpl": 2894,
      "dR": 2895,
      "}.)": 2896,
      "moreover": 2897,
      "S_g": 2898,
      "families": 2899,
      "Decent": 2900,
      "Simplicial": 2901,
      "p_2": 2902,
      "ini": 2903,
      "Inf": 2904,
      "restricts": 2905,
      "argue": 2906,
      "r_1": 2907,
      "t_": 2908,
      "res": 2909,
      "bered": 2910,
      "member": 2911,
      "gorenstein": 2912,
      "produces": 2913,
      "stratification": 2914,
      "tia": 2915,
      "ober": 2916,
      "mbol": 2917,
      "structures": 2918,
      "_G": 2919,
      "wri": 2920,
      "}^*\\": 2921,
      "symmetric": 2922,
      "orde": 2923,
      "conver": 2924,
      "g_m": 2925,
      "whenever": 2926,
      "ordered": 2927,
      "bine": 2928,
      "instead": 2929,
      "},\\": 2930,
      "xive": 2931,
      "purity": 2932,
      "Equation": 2933,
      "Ac": 2934,
      "sober": 2935,
      "tably": 2936,
      "symbol": 2937,
      "solve": 2938,
      "singleton": 2939,
      "termwise": 2940,
      "trdeg": 2941,
      "inertia": 2942,
      "Cris": 2943,
      "IS": 2944,
      "V_0": 2945,
      "ama": 2946,
      "i_2": 2947,
      "k_": 2948,
      "sitic": 2949,
      "coming": 2950,
      "monoid": 2951,
      "reflexive": 2952,
      "B_n": 2953,
      "})(": 2954,
      "Details": 2955,
      "necessary": 2956,
      "Flatness": 2957,
      "Condition": 2958,
      "']": 2959,
      "subalgebra": 2960,
      "}\\}": 2961,
      "extended": 2962,
      "obtained": 2963,
      "valued": 2964,
      "basic": 2965,
      "height": 2966,
      "*}$": 2967,
      "E_r": 2968,
      "bl": 2969,
      "skip": 2970,
      "issage": 2971,
      "fractions": 2972,
      "'\\": 2973,
      "recall": 2974,
      "times_V": 2975,
      "blowups": 2976,
      "epimorphism": 2977,
      "I_i": 2978,
      "LQCoh": 2979,
      "R_1": 2980,
      "nega": 2981,
      "classical": 2982,
      "-\\": 2983,
      "koszul": 2984,
      "recover": 2985,
      "ayama": 2986,
      "akayama": 2987,
      "interse": 2988,
      "indices": 2989,
      "'}$-": 2990,
      "Yoneda": 2991,
      "_C": 2992,
      "types": 2993,
      "obser": 2994,
      "paper": 2995,
      "members": 2996,
      "negative": 2997,
      "Po": 2998,
      "]]": 2999,
      "n_S": 3000,
      "wards": 3001,
      "invarian": 3002,
      "ane": 3003,
      "iff": 3004,
      "Hom_X": 3005,
      "sufficient": 3006,
      "countably": 3007,
      "transforms": 3008,
      "@{-->}[": 3009,
      "WAd": 3010,
      "d_0": 3011,
      "ov": 3012,
      "simal": 3013,
      "generates": 3014,
      "must": 3015,
      "descends": 3016,
      "Immediate": 3017,
      "determinant": 3018,
      "WAdm": 3019,
      "Z_j": 3020,
      "h_V": 3021,
      "inite": 3022,
      "ofinite": 3023,
      "solid": 3024,
      "theses": 3025,
      "key": 3026,
      "rystal": 3027,
      "compactification": 3028,
      "av": 3029,
      "fA": 3030,
      "lease": 3031,
      "seto": 3032,
      "changes": 3033,
      "initial": 3034,
      "Nakayama": 3035,
      "tten": 3036,
      "orm": 3037,
      "profinite": 3038,
      "Y_s": 3039,
      "unctor": 3040,
      "reasonable": 3041,
      "happens": 3042,
      "compatibility": 3043,
      "dor": 3044,
      "injection": 3045,
      "useful": 3046,
      "forms": 3047,
      "nating": 3048,
      "variable": 3049,
      "G_": 3050,
      "Gr": 3051,
      "M_0": 3052,
      "a_j": 3053,
      "usdor": 3054,
      "if_": 3055,
      "eries": 3056,
      "izes": 3057,
      "associates": 3058,
      "quote": 3059,
      "alternating": 3060,
      "cofibered": 3061,
      "usdorff": 3062,
      "\\}}": 3063,
      "\\}$,": 3064,
      "_l": 3065,
      "crystal": 3066,
      "r_i": 3067,
      "rob": 3068,
      "cochain": 3069,
      "substack": 3070,
      "ordinal": 3071,
      "Axiom": 3072,
      "bot": 3073,
      "^*(\\": 3074,
      "hypotheses": 3075,
      "23": 3076,
      "F_1": 3077,
      "I_1": 3078,
      "Please": 3079,
      "^-": 3080,
      "hull": 3081,
      "series": 3082,
      "mat": 3083,
      "submodules": 3084,
      "actually": 3085,
      "'))": 3086,
      "satura": 3087,
      "]]$": 3088,
      "galois": 3089,
      "u_1": 3090,
      "inh": 3091,
      "root": 3092,
      "prov": 3093,
      "detail": 3094,
      "dga": 3095,
      "fbc": 3096,
      "g_0": 3097,
      "''$.": 3098,
      "embedded": 3099,
      "Taking": 3100,
      "monoidal": 3101,
      "ip": 3102,
      "rt": 3103,
      "bfunctor": 3104,
      "f_m": 3105,
      "quot": 3106,
      "Hilbfunctor": 3107,
      "N_1": 3108,
      "bim": 3109,
      "gne": 3110,
      "n_0": 3111,
      "ligne": 3112,
      "transl": 3113,
      "$[\\": 3114,
      "lly": 3115,
      "ari": 3116,
      "})}(\\": 3117,
      "uniquely": 3118,
      "i_0i_1": 3119,
      "Z_r": 3120,
      "introduce": 3121,
      "QC": 3122,
      "s_j": 3123,
      "mu_": 3124,
      "}[\\": 3125,
      "infinitesimal": 3126,
      "surjectivity": 3127,
      "remains": 3128,
      "saturated": 3129,
      "H_i": 3130,
      "S_2": 3131,
      "ators": 3132,
      "dy": 3133,
      "ms": 3134,
      "uts": 3135,
      "proving": 3136,
      "subgroup": 3137,
      "whence": 3138,
      "functor_": 3139,
      "easily": 3140,
      "13": 3141,
      "SR": 3142,
      "fe": 3143,
      "four": 3144,
      "tame": 3145,
      "obstruction": 3146,
      "')}": 3147,
      "polynomials": 3148,
      "identifications": 3149,
      "roben": 3150,
      "2d": 3151,
      "P_i": 3152,
      "Res": 3153,
      "V_n": 3154,
      "proce": 3155,
      "preced": 3156,
      "}(\\{": 3157,
      "Assump": 3158,
      "nee": 3159,
      "}[-": 3160,
      "observation": 3161,
      "preceding": 3162,
      "OK": 3163,
      "i_X": 3164,
      "ited": 3165,
      "adjo": 3166,
      "separably": 3167,
      "consists": 3168,
      "11": 3169,
      "RHom": 3170,
      "ik": 3171,
      "zar": 3172,
      "}$}": 3173,
      "computes": 3174,
      "boundary": 3175,
      "Fil": 3176,
      "Tra": 3177,
      "hil": 3178,
      "tro": 3179,
      "silly": 3180,
      "uniform": 3181,
      "chapters": 3182,
      "arily": 3183,
      "allow": 3184,
      "xi_n": 3185,
      "preserves": 3186,
      "determined": 3187,
      "^+(": 3188,
      "N_2": 3189,
      "S1": 3190,
      "c1": 3191,
      "q_1": 3192,
      "vr": 3193,
      "break": 3194,
      "equivalences": 3195,
      "transcendence": 3196,
      "Each": 3197,
      "Z_n": 3198,
      "dvr": 3199,
      "times_R": 3200,
      "linearly": 3201,
      "f_t": 3202,
      "unibranch": 3203,
      "Deligne": 3204,
      "correct": 3205,
      "straight": 3206,
      "^+(\\": 3207,
      "Fix": 3208,
      "Hilbert": 3209,
      "Aff": 3210,
      "Diff": 3211,
      "IA": 3212,
      "ology": 3213,
      "making": 3214,
      "Duality": 3215,
      "slight": 3216,
      "guarantees": 3217,
      "'}$,": 3218,
      "2n": 3219,
      "ius": 3220,
      "codim": 3221,
      "expres": 3222,
      "whether": 3223,
      "otimes_S": 3224,
      "Notation": 3225,
      "presentations": 3226,
      "gamma_n": 3227,
      "homological": 3228,
      "combined": 3229,
      "Having": 3230,
      "study": 3231,
      "straightforward": 3232,
      "*}(\\": 3233,
      "2_": 3234,
      "Bo": 3235,
      "j_0": 3236,
      "ka": 3237,
      "resolutions": 3238,
      "dimensions": 3239,
      "choices": 3240,
      "additivity": 3241,
      "Examples": 3242,
      "parasitic": 3243,
      "terminology": 3244,
      "@{-}[": 3245,
      "refined": 3246,
      "intersect": 3247,
      "robenius": 3248,
      "n_A": 3249,
      "pas": 3250,
      "lest": 3251,
      "therefore": 3252,
      "etc": 3253,
      "}((\\": 3254,
      "smallest": 3255,
      "indexed": 3256,
      "zariski": 3257,
      "nagata": 3258,
      "pun": 3259,
      "|$,": 3260,
      "}(-": 3261,
      "difference": 3262,
      "annihilates": 3263,
      "mentioned": 3264,
      "bottom": 3265,
      "All": 3266,
      "S_n": 3267,
      "]$-": 3268,
      "ia": 3269,
      "qf": 3270,
      "completions": 3271,
      "flatten": 3272,
      "}'(": 3273,
      "restricted": 3274,
      "F_0": 3275,
      "pf_": 3276,
      "s_0": 3277,
      "u_p": 3278,
      "z_i": 3279,
      "lation": 3280,
      "try": 3281,
      "setoids": 3282,
      "(|": 3283,
      "Case": 3284,
      "Rg_": 3285,
      "k_i": 3286,
      "isn": 3287,
      "unbounded": 3288,
      "converse": 3289,
      "mersive": 3290,
      "prep": 3291,
      "interest": 3292,
      "completely": 3293,
      "topologically": 3294,
      "globally": 3295,
      "criteria": 3296,
      "^!\\": 3297,
      "looking": 3298,
      "though": 3299,
      "occur": 3300,
      "punct": 3301,
      "AK": 3302,
      "h_1": 3303,
      "p_0": 3304,
      "sug": 3305,
      "X_V": 3306,
      "piec": 3307,
      "stabil": 3308,
      "/(\\": 3309,
      "age": 3310,
      "^*[": 3311,
      "conclusion": 3312,
      "import": 3313,
      "$}.": 3314,
      "parame": 3315,
      "$(-": 3316,
      "grothendieck": 3317,
      "beta_": 3318,
      "M_3": 3319,
      "refinement": 3320,
      "Trace": 3321,
      "_c": 3322,
      "y_n": 3323,
      "submersive": 3324,
      "X_U": 3325,
      "M_f": 3326,
      "kernels": 3327,
      ")^*\\": 3328,
      "*$.": 3329,
      "Cor": 3330,
      "Lift": 3331,
      "M_j": 3332,
      "NAK": 3333,
      "cul": 3334,
      "j_U": 3335,
      "isi": 3336,
      "common": 3337,
      "could": 3338,
      "shift": 3339,
      "numbers": 3340,
      "correspondence": 3341,
      "easier": 3342,
      "prepare": 3343,
      "important": 3344,
      "Gra": 3345,
      "Ste": 3346,
      "T_2": 3347,
      "c_p": 3348,
      "once": 3349,
      "ature": 3350,
      "ently": 3351,
      "dekind": 3352,
      "itself": 3353,
      "uple": 3354,
      "bilinear": 3355,
      "EGA": 3356,
      "L_n": 3357,
      "TR": 3358,
      "inv": 3359,
      "coequalizer": 3360,
      "Setting": 3361,
      "intersections": 3362,
      "adjointness": 3363,
      "arn": 3364,
      "'')$": 3365,
      ")))": 3366,
      "event": 3367,
      ")\\}$": 3368,
      "Vect": 3369,
      "g_2": 3370,
      "s_n": 3371,
      "ured": 3372,
      "Hausdorff": 3373,
      "require": 3374,
      "According": 3375,
      "LC": 3376,
      "Rlim": 3377,
      "lu": 3378,
      "my": 3379,
      "Lambda_": 3380,
      "x_t": 3381,
      "copies": 3382,
      "A_j": 3383,
      "B_2": 3384,
      "D_1": 3385,
      "den": 3386,
      "nds": 3387,
      "towards": 3388,
      "})|": 3389,
      "Gamma_Z": 3390,
      "summands": 3391,
      "excep": 3392,
      "Every": 3393,
      "P_2": 3394,
      "retro": 3395,
      "),\\": 3396,
      "inducing": 3397,
      "Ann": 3398,
      "amalg_": 3399,
      "Combining": 3400,
      "=$``$": 3401,
      "P_n": 3402,
      "ability": 3403,
      "ond": 3404,
      "calcul": 3405,
      "according": 3406,
      "psi_": 3407,
      "largest": 3408,
      "composing": 3409,
      "written": 3410,
      "exceptional": 3411,
      "D_i": 3412,
      "P_0": 3413,
      "U_k": 3414,
      "aro": 3415,
      "qrt": 3416,
      "sqrt": 3417,
      "tech": 3418,
      "parti": 3419,
      "nonsingular": 3420,
      "worst": 3421,
      "domains": 3422,
      "surjections": 3423,
      "interesting": 3424,
      ")\\}": 3425,
      "1_X": 3426,
      "C_1": 3427,
      "FD": 3428,
      "UFD": 3429,
      "d_2": 3430,
      "jj": 3431,
      "}\\\\": 3432,
      "'),": 3433,
      "residual": 3434,
      "punctured": 3435,
      "invol": 3436,
      "H_n": 3437,
      "K_2": 3438,
      "R_n": 3439,
      "sen": 3440,
      "ram": 3441,
      "}((": 3442,
      "restrictions": 3443,
      "Picture": 3444,
      "inher": 3445,
      "retrocompact": 3446,
      "$>": 3447,
      "C_n": 3448,
      "m_x": 3449,
      "ordin": 3450,
      "multiplicity": 3451,
      "flattening": 3452,
      "eventually": 3453,
      "Ano": 3454,
      "_I": 3455,
      "evalu": 3456,
      "y_2": 3457,
      "linebreak": 3458,
      "xi_1": 3459,
      "mong": 3460,
      "B_g": 3461,
      "vanishes": 3462,
      "Another": 3463,
      ")(\\": 3464,
      "yle": 3465,
      "notions": 3466,
      "style": 3467,
      "}}}": 3468,
      "beta_i": 3469,
      "identified": 3470,
      "triples": 3471,
      "twisted": 3472,
      "slightly": 3473,
      "$<": 3474,
      "+(": 3475,
      "among": 3476,
      "cu": 3477,
      "tally": 3478,
      "suc": 3479,
      "aps": 3480,
      "otimes_K": 3481,
      "Injec": 3482,
      "m_S": 3483,
      "identifies": 3484,
      "123": 3485,
      "bimodule": 3486,
      "d_r": 3487,
      "e_n": 3488,
      "m_0": 3489,
      "acts": 3490,
      "vel": 3491,
      "})^\\": 3492,
      "Int": 3493,
      "new": 3494,
      "disconnected": 3495,
      "automorphisms": 3496,
      "artinian": 3497,
      "inherited": 3498,
      "-{\\": 3499,
      "Der": 3500,
      "Q_X": 3501,
      "totally": 3502,
      "were": 3503,
      "taut": 3504,
      "pream": 3505,
      "restricting": 3506,
      "implications": 3507,
      "contents": 3508,
      "ramification": 3509,
      "preamble": 3510,
      "20": 3511,
      "One": 3512,
      "Rham": 3513,
      "las": 3514,
      "}}^": 3515,
      "degenerate": 3516,
      "hocolim": 3517,
      "pi_0": 3518,
      "direction": 3519,
      "U_d": 3520,
      "translation": 3521,
      "localizations": 3522,
      "-]{": 3523,
      "made": 3524,
      "aldocument": 3525,
      "extern": 3526,
      "transitive": 3527,
      "n_R": 3528,
      "hyperref": 3529,
      "maketitle": 3530,
      "dominates": 3531,
      "evissage": 3532,
      "ams": 3533,
      "forgetful": 3534,
      "sufficiently": 3535,
      "provided": 3536,
      "Introdu": 3537,
      "externaldocument": 3538,
      "))$,": 3539,
      "bis": 3540,
      "xR": 3541,
      "level": 3542,
      "ofcontents": 3543,
      "ford": 3544,
      "stated": 3545,
      "unn": 3546,
      "algebraization": 3547,
      "lim_i": 3548,
      "smoothness": 3549,
      "Rees": 3550,
      "tableofcontents": 3551,
      "singularities": 3552,
      "picard": 3553,
      "bibliographystyle": 3554,
      "amsalpha": 3555,
      "Mat": 3556,
      "N_i": 3557,
      "Pol": 3558,
      "Su": 3559,
      "resolve": 3560,
      "subring": 3561,
      "}'$,": 3562,
      "Second": 3563,
      "characterized": 3564,
      "goal": 3565,
      "]^{(": 3566,
      "injectivity": 3567,
      "automa": 3568,
      "phantomsection": 3569,
      "'}^\\": 3570,
      "I_0": 3571,
      "L_i": 3572,
      "Un": 3573,
      "_M": 3574,
      "dl": 3575,
      "ear": 3576,
      "really": 3577,
      "box": 3578,
      "generating": 3579,
      "psi_i": 3580,
      "))}": 3581,
      "continue": 3582,
      "Combine": 3583,
      "Argu": 3584,
      "emph": 3585,
      "required": 3586,
      "Axioms": 3587,
      "Arguing": 3588,
      "]\\": 3589,
      "h_n": 3590,
      "nab": 3591,
      "nowhere": 3592,
      "localized": 3593,
      "peri": 3594,
      "eta_": 3595,
      "operator": 3596,
      "references": 3597,
      "velop": 3598,
      "needed": 3599,
      "passing": 3600,
      "nabla": 3601,
      "!(\\": 3602,
      "E_0": 3603,
      "brie": 3604,
      "i_n": 3605,
      "cting": 3606,
      "}'|": 3607,
      "x_3": 3608,
      "eta_f": 3609,
      "Parts": 3610,
      "Big": 3611,
      "ativity": 3612,
      "h1": 3613,
      "nr": 3614,
      "ubi": 3615,
      "arized": 3616,
      "posed": 3617,
      "toris": 3618,
      "olated": 3619,
      "otimes_P": 3620,
      "Spacesstack": 3621,
      "fying": 3622,
      "preserve": 3623,
      "project": 3624,
      "indicate": 3625,
      "Introduction": 3626,
      "unneth": 3627,
      "!}$": 3628,
      "I_2": 3629,
      "What": 3630,
      "ca": 3631,
      "r_0": 3632,
      "weight": 3633,
      "pped": 3634,
      "everything": 3635,
      "face": 3636,
      "pai": 3637,
      "Take": 3638,
      "related": 3639,
      "Deformationcategory_": 3640,
      "Polarized": 3641,
      "'|$": 3642,
      "Do": 3643,
      "_e": 3644,
      "j_2": 3645,
      "develop": 3646,
      "why": 3647,
      "categorical": 3648,
      "alpha_n": 3649,
      "divisi": 3650,
      "lambda_0": 3651,
      "mapped": 3652,
      "langu": 3653,
      "^\\#$": 3654,
      "torsors": 3655,
      "$),": 3656,
      "GL": 3657,
      "SGA": 3658,
      "V_2": 3659,
      "m_2": 3660,
      "repe": 3661,
      "ormul": 3662,
      "chi_": 3663,
      "reformul": 3664,
      "}))$.": 3665,
      "Represent": 3666,
      "assin": 3667,
      "assassin": 3668,
      "period": 3669,
      "b_n": 3670,
      "s_2": 3671,
      "w_j": 3672,
      "erential": 3673,
      "})/": 3674,
      "predeformation": 3675,
      "urge": 3676,
      "')^{": 3677,
      "bigger": 3678,
      "iltered": 3679,
      "replaced": 3680,
      "filter": 3681,
      "necessarily": 3682,
      "absolutely": 3683,
      "Differential": 3684,
      "language": 3685,
      "!(": 3686,
      "/[": 3687,
      "c_j": 3688,
      "ging": 3689,
      "ill": 3690,
      "m_n": 3691,
      "isolated": 3692,
      "ask": 3693,
      "^*$.": 3694,
      "Finite": 3695,
      "mistable": 3696,
      "leave": 3697,
      "cofiltered": 3698,
      "Loo": 3699,
      "idempotents": 3700,
      "Graded": 3701,
      "techn": 3702,
      "'\\}": 3703,
      "Lg_": 3704,
      "Q_1": 3705,
      "fs": 3706,
      "sn": 3707,
      "erature": 3708,
      "been": 3709,
      "coordin": 3710,
      "smaller": 3711,
      "explained": 3712,
      "boxtimes": 3713,
      "2g": 3714,
      "])$.": 3715,
      "e_2": 3716,
      "sides": 3717,
      "finally": 3718,
      "})^": 3719,
      "Dedekind": 3720,
      "serre": 3721,
      "-{": 3722,
      "M_k": 3723,
      "Mum": 3724,
      "PAb": 3725,
      "W_1": 3726,
      "k_1": 3727,
      "kov": 3728,
      "pK": 3729,
      "ance": 3730,
      "$.)": 3731,
      "''/": 3732,
      "i_T": 3733,
      "Arrows": 3734,
      "]^-{": 3735,
      "Before": 3736,
      "stabilizer": 3737,
      "arning": 3738,
      "technical": 3739,
      "J_0": 3740,
      "L_1": 3741,
      "_u": 3742,
      "wit": 3743,
      "{[": 3744,
      "}})$": 3745,
      "thus": 3746,
      "envelo": 3747,
      "prorepresentable": 3748,
      "rad": 3749,
      "})^{-": 3750,
      "chosen": 3751,
      "tensoring": 3752,
      "origin": 3753,
      "periodic": 3754,
      "Mumford": 3755,
      "'/\\": 3756,
      "_F": 3757,
      "h_0": 3758,
      "ken": 3759,
      "osing": 3760,
      "w_k": 3761,
      "};": 3762,
      "orbit": 3763,
      "fiber": 3764,
      "algebraize": 3765,
      "pi_S": 3766,
      "equations": 3767,
      "Property": 3768,
      "pairwise": 3769,
      "faithfulness": 3770,
      "literature": 3771,
      "mappings": 3772,
      "approximate": 3773,
      "uniformizer": 3774,
      "weighting": 3775,
      "${": 3776,
      "10": 3777,
      "I_j": 3778,
      "hel": 3779,
      "n_Y": 3780,
      "q_j": 3781,
      "endomorphism": 3782,
      "coproduct": 3783,
      "ters": 3784,
      "}''$": 3785,
      "abuse": 3786,
      "contraction": 3787,
      "^!$": 3788,
      "rules": 3789,
      "Injectives": 3790,
      "'})$.": 3791,
      ")})$": 3792,
      "ctive": 3793,
      "tiori": 3794,
      "roots": 3795,
      "post": 3796,
      "fortiori": 3797,
      "shif": 3798,
      "plus": 3799,
      "produce": 3800,
      "working": 3801,
      "monomorphisms": 3802,
      "bigcap_": 3803,
      "${}": 3804,
      "Mo": 3805,
      "dro": 3806,
      "mail": 3807,
      "})\\": 3808,
      "subsection": 3809,
      "varphi_n": 3810,
      "Cohstack_": 3811,
      "irs": 3812,
      "central": 3813,
      "else": 3814,
      "truncations": 3815,
      "variables": 3816,
      "({\\": 3817,
      "Uni": 3818,
      "a_k": 3819,
      "inted": 3820,
      "aly": 3821,
      "off": 3822,
      "erior": 3823,
      "singer": 3824,
      "combination": 3825,
      "recovers": 3826,
      "succes": 3827,
      "Looking": 3828,
      "You": 3829,
      "lqf": 3830,
      "v_i": 3831,
      "ship": 3832,
      "^{[": 3833,
      "please": 3834,
      "dominate": 3835,
      "excell": 3836,
      "pushouts": 3837,
      "equipped": 3838,
      "operators": 3839,
      "stairs": 3840,
      "lessinger": 3841,
      "around": 3842,
      "1_1": 3843,
      "awn": 3844,
      "fut": 3845,
      "assigns": 3846,
      "rier": 3847,
      "})/\\": 3848,
      "subcategories": 3849,
      "itemize": 3850,
      "showing": 3851,
      "minant": 3852,
      "placed": 3853,
      "hypercoverings": 3854,
      "relationship": 3855,
      "avoid": 3856,
      "match": 3857,
      "procedu": 3858,
      "kai": 3859,
      "Step": 3860,
      "future": 3861,
      "PMod": 3862,
      "Ra_": 3863,
      "W_0": 3864,
      "ides": 3865,
      "meth": 3866,
      "riminant": 3867,
      "unless": 3868,
      "apane": 3869,
      "mut": 3870,
      "Alg": 3871,
      "discriminant": 3872,
      "few": 3873,
      "pieces": 3874,
      "envelope": 3875,
      "procedure": 3876,
      "apanese": 3877,
      "H1": 3878,
      "J_n": 3879,
      "Via": 3880,
      "Whence": 3881,
      "qf_": 3882,
      "sitting": 3883,
      "functorially": 3884,
      "nikov": 3885,
      "}'),": 3886,
      "det_": 3887,
      "generalizations": 3888,
      "suggest": 3889,
      "divisible": 3890,
      "D_2": 3891,
      "F_n": 3892,
      "Further": 3893,
      "\\})": 3894,
      "h_2": 3895,
      "wind": 3896,
      "pointed": 3897,
      "erically": 3898,
      "X_A": 3899,
      "}\\}$": 3900,
      "Define": 3901,
      "i_f": 3902,
      "omega_Y": 3903,
      "count": 3904,
      "Bootstrap": 3905,
      ")[-": 3906,
      "Use": 3907,
      "p_n": 3908,
      "w_": 3909,
      "analy": 3910,
      "weil": 3911,
      "proofs": 3912,
      "who": 3913,
      "lim_n": 3914,
      "kappa_A": 3915,
      "\\}}$": 3916,
      "nonzerodivisors": 3917,
      "listed": 3918,
      "adjoints": 3919,
      "successive": 3920,
      "excellent": 3921,
      "Li": 3922,
      "TF": 3923,
      "bes": 3924,
      "u_n": 3925,
      "sie": 3926,
      "determ": 3927,
      "nolimits_i": 3928,
      "saying": 3929,
      "checked": 3930,
      "Delta_f": 3931,
      "versality": 3932,
      "determine": 3933,
      "P_p": 3934,
      "jacobson": 3935,
      "ske": 3936,
      "t_n": 3937,
      "refines": 3938,
      "proven": 3939,
      "deal": 3940,
      "times_F": 3941,
      "Mor_S": 3942,
      "starting": 3943,
      "contravariant": 3944,
      "expression": 3945,
      "calculation": 3946,
      "brief": 3947,
      "5ex": 3948,
      "C_j": 3949,
      "don": 3950,
      "norm": 3951,
      "pts": 3952,
      "u_2": 3953,
      "relocalize": 3954,
      "tice": 3955,
      "bext": 3956,
      "subext": 3957,
      "lowed": 3958,
      "meet": 3959,
      "generically": 3960,
      "otherwise": 3961,
      "epsilon_X": 3962,
      "W_a": 3963,
      ")^\\#": 3964,
      "III": 3965,
      "endow": 3966,
      "hilbert": 3967,
      "subextension": 3968,
      "'(\\": 3969,
      ".}.": 3970,
      "F_2": 3971,
      "Pull": 3972,
      "dr": 3973,
      "y_0": 3974,
      "inequality": 3975,
      "ors": 3976,
      "f_a": 3977,
      "bits": 3978,
      "giving": 3979,
      "\\{(": 3980,
      "sigma_i": 3981,
      "ordering": 3982,
      "1_R": 3983,
      "R_2": 3984,
      "Wh": 3985,
      "h0": 3986,
      "}{\\": 3987,
      "improve": 3988,
      "saw": 3989,
      "representative": 3990,
      "geometry": 3991,
      "decompose": 3992,
      "invariants": 3993,
      "invariance": 3994,
      "02": 3995,
      "evaluation": 3996,
      "frobenius": 3997,
      "h_j": 3998,
      "yoneda": 3999,
      "isomorph": 4000,
      "lead": 4001,
      "erator": 4002,
      "ental": 4003,
      "taken": 4004,
      "coherator": 4005,
      "properly": 4006,
      "alpha_0": 4007,
      "pi_i": 4008,
      "wedge_": 4009,
      "nondegenerate": 4010,
      "delta_n": 4011,
      "}|$.": 4012,
      "sert": 4013,
      "nice": 4014,
      "inclusions": 4015,
      "stronger": 4016,
      "]^-{\\": 4017,
      "transcendental": 4018,
      "translates": 4019,
      "automatically": 4020,
      "mutually": 4021,
      "([\\": 4022,
      "-$": 4023,
      "L_0": 4024,
      "b_0": 4025,
      "ok": 4026,
      "q_0": 4027,
      "lambda_i": 4028,
      "ake": 4029,
      "umn": 4030,
      "theta_": 4031,
      "column": 4032,
      "Such": 4033,
      "Polarizedstack": 4034,
      "End": 4035,
      "land": 4036,
      "pec": 4037,
      "ups": 4038,
      "''}$": 4039,
      "}/(": 4040,
      "depends": 4041,
      "reading": 4042,
      "Ri_": 4043,
      "_b": 4044,
      "c_0": 4045,
      "ner": 4046,
      "rat": 4047,
      "uler": 4048,
      "isom": 4049,
      "})[": 4050,
      "conf": 4051,
      "X_d": 4052,
      "surface": 4053,
      "'}|": 4054,
      "inductive": 4055,
      "pulling": 4056,
      "equivalently": 4057,
      "copy": 4058,
      "Corr": 4059,
      "pairing": 4060,
      "method": 4061,
      "B_j": 4062,
      "b_j": 4063,
      "rally": 4064,
      "semin": 4065,
      "orbits": 4066,
      "deformations": 4067,
      "times_W": 4068,
      "alpha_2": 4069,
      "grading": 4070,
      "Noeth": 4071,
      "invert": 4072,
      "integrally": 4073,
      "U_p": 4074,
      "pulls": 4075,
      "cited": 4076,
      "partial_": 4077,
      "cokernels": 4078,
      "contradicts": 4079,
      "applications": 4080,
      "Picardfunctor_": 4081,
      "trick": 4082,
      "drop": 4083,
      "@/": 4084,
      "Ge": 4085,
      "Norm": 4086,
      "Sur": 4087,
      "bu": 4088,
      "bor": 4089,
      "b_2": 4090,
      "kunneth": 4091,
      "t_2": 4092,
      "uing": 4093,
      "time": 4094,
      "semistable": 4095,
      "imum": 4096,
      "coproducts": 4097,
      "equivariant": 4098,
      "indicated": 4099,
      "Combined": 4100,
      "isomorphically": 4101,
      "C_0": 4102,
      "d_j": 4103,
      "tle": 4104,
      "insert": 4105,
      "deform": 4106,
      "upstairs": 4107,
      "kill": 4108,
      "ments": 4109,
      "Definitions": 4110,
      "choosing": 4111,
      "resulting": 4112,
      "eta_n": 4113,
      "mono": 4114,
      "fourth": 4115,
      "Assumptions": 4116,
      "original": 4117,
      "seminormal": 4118,
      "']$": 4119,
      ")).": 4120,
      "1_0": 4121,
      "2_k": 4122,
      "Q_2": 4123,
      "\\}.": 4124,
      "fM": 4125,
      "v_1": 4126,
      "ants": 4127,
      "sim_": 4128,
      "sitivity": 4129,
      "}$).": 4130,
      "classifying": 4131,
      "converges": 4132,
      "$:": 4133,
      "IC": 4134,
      "_L": 4135,
      "e_0": 4136,
      "lits": 4137,
      "n_r": 4138,
      "rull": 4139,
      "uer": 4140,
      "splits": 4141,
      "oppo": 4142,
      "olu": 4143,
      "X_t": 4144,
      "varphi_1": 4145,
      "page": 4146,
      "things": 4147,
      "Simp": 4148,
      "}^\\#$": 4149,
      "lander": 4150,
      "1f_": 4151,
      "W_n": 4152,
      "\\})$": 4153,
      "larg": 4154,
      "run": 4155,
      "veri": 4156,
      "}$)": 4157,
      "^*}": 4158,
      "bili": 4159,
      "lambda_": 4160,
      "gamma_i": 4161,
      "satz": 4162,
      "doesn": 4163,
      "When": 4164,
      "bilities": 4165,
      "MS": 4166,
      "Warning": 4167,
      "_N": 4168,
      "e_j": 4169,
      "faces": 4170,
      "haps": 4171,
      "lic": 4172,
      "omet": 4173,
      "}'$-": 4174,
      "omega_S": 4175,
      "associative": 4176,
      "Remarks": 4177,
      "$[-": 4178,
      "outer": 4179,
      "independence": 4180,
      "truncated": 4181,
      "Quotfunctor_": 4182,
      "Assumption": 4183,
      "illan": 4184,
      "Geomet": 4185,
      "$'": 4186,
      "Claim": 4187,
      "Rh_": 4188,
      "ensatz": 4189,
      "vered": 4190,
      "impurity": 4191,
      "covered": 4192,
      "llensatz": 4193,
      "ullste": 4194,
      "Hom_Y": 4195,
      "specializes": 4196,
      "trivially": 4197,
      "little": 4198,
      "1_B": 4199,
      "cending": 4200,
      "shifts": 4201,
      "opposite": 4202,
      "ullstellensatz": 4203,
      ")},": 4204,
      "Lh": 4205,
      "Ph": 4206,
      "S_j": 4207,
      "Smooth": 4208,
      "TS": 4209,
      "_q": 4210,
      "a_Y": 4211,
      "hu": 4212,
      "r_2": 4213,
      "yet": 4214,
      "quity": 4215,
      "polar": 4216,
      "subfield": 4217,
      "aleph": 4218,
      "tory": 4219,
      "separation": 4220,
      "exterior": 4221,
      "'''": 4222,
      "}'})": 4223,
      "unions": 4224,
      "dominating": 4225,
      "combining": 4226,
      "shrink": 4227,
      "ubiquity": 4228,
      "winding": 4229,
      "polarized": 4230,
      "Cri": 4231,
      "Japanese": 4232,
      "Pre": 4233,
      "Ver": 4234,
      "h_X": 4235,
      "w_1": 4236,
      "}]$.": 4237,
      "'}^{-": 4238,
      "beta_1": 4239,
      "Replac": 4240,
      "facts": 4241,
      "'/(": 4242,
      "additional": 4243,
      "reflects": 4244,
      "briefly": 4245,
      ")}}": 4246,
      ")}$,": 4247,
      "Again": 4248,
      "LF": 4249,
      "Pu": 4250,
      "io": 4251,
      "ify": 4252,
      "int_": 4253,
      "bred": 4254,
      "respective": 4255,
      "}')$.": 4256,
      "m_s": 4257,
      "replacement": 4258,
      "counter": 4259,
      "acyclicity": 4260,
      "simplex": 4261,
      "usually": 4262,
      "derivations": 4263,
      "truncation": 4264,
      "Kan": 4265,
      "c_f": 4266,
      "gre": 4267,
      "otic": 4268,
      "rham": 4269,
      "enco": 4270,
      "que": 4271,
      "duction": 4272,
      "motiv": 4273,
      "limin": 4274,
      "upon": 4275,
      "mu_n": 4276,
      "sable": 4277,
      "delta_i": 4278,
      "Schlessinger": 4279,
      "quadr": 4280,
      "lie": 4281,
      "formulate": 4282,
      "chaotic": 4283,
      "Picardstack_": 4284,
      "cofibred": 4285,
      "Phi_": 4286,
      "+$": 4287,
      "AB": 4288,
      "Mu": 4289,
      "dge": 4290,
      "qis": 4291,
      "tz": 4292,
      "z_j": 4293,
      "rease": 4294,
      "spea": 4295,
      "completed": 4296,
      "}'/": 4297,
      "range": 4298,
      "m_3": 4299,
      "lier": 4300,
      "^!(": 4301,
      "deriv": 4302,
      "Representability": 4303,
      "Furthermore": 4304,
      "iota": 4305,
      "'\\}$": 4306,
      ")),": 4307,
      "-}": 4308,
      "4w": 4309,
      "asi": 4310,
      "fsche": 4311,
      "l_": 4312,
      "}})$.": 4313,
      "forall": 4314,
      "combine": 4315,
      "{\\!": 4316,
      "seems": 4317,
      "much": 4318,
      "separate": 4319,
      "lambda_1": 4320,
      "S_f": 4321,
      "generality": 4322,
      "Z_s": 4323,
      "connection": 4324,
      "closures": 4325,
      "stract": 4326,
      "convenient": 4327,
      "urage": 4328,
      "allows": 4329,
      "parametri": 4330,
      "earlier": 4331,
      "SGA4": 4332,
      "inductively": 4333,
      "runs": 4334,
      "Mukai": 4335,
      "fschetz": 4336,
      ")}$-": 4337,
      "hint": 4338,
      "j_i": 4339,
      "although": 4340,
      "real": 4341,
      "ans": 4342,
      "fits": 4343,
      "varphi_j": 4344,
      "near": 4345,
      "everywhere": 4346,
      "Gamma_f": 4347,
      "pushforw": 4348,
      "sson": 4349,
      "Being": 4350,
      "^-(\\": 4351,
      "evaluate": 4352,
      "encourage": 4353,
      "pushforwards": 4354,
      "Ade": 4355,
      "D1": 4356,
      "W_k": 4357,
      "rru": 4358,
      "ones": 4359,
      "rele": 4360,
      "dev": 4361,
      "nonconstant": 4362,
      "}^{+": 4363,
      "``$": 4364,
      "considering": 4365,
      "Exact": 4366,
      "collect": 4367,
      "parameters": 4368,
      "eta_fM": 4369,
      "IV": 4370,
      "Krull": 4371,
      "xM": 4372,
      "}}\\": 4373,
      "tify": 4374,
      "int_X": 4375,
      "Noether": 4376,
      "mum": 4377,
      "}'/\\": 4378,
      "odd": 4379,
      "U_V": 4380,
      "U_m": 4381,
      "}^{(": 4382,
      "multip": 4383,
      "rrd": 4384,
      "abstract": 4385,
      "----": 4386,
      "convention": 4387,
      "Fitting": 4388,
      "certainly": 4389,
      "Document": 4390,
      "$},": 4391,
      "Gen": 4392,
      "Sig": 4393,
      "Tran": 4394,
      "nor": 4395,
      "tre": 4396,
      "u_s": 4397,
      "vant": 4398,
      "actual": 4399,
      "Special": 4400,
      "X_3": 4401,
      "U_v": 4402,
      "gamma_1": 4403,
      "A_a": 4404,
      "topologized": 4405,
      "keep": 4406,
      "Divided": 4407,
      "extending": 4408,
      "alteration": 4409,
      "bundles": 4410,
      "Quasi": 4411,
      "denomin": 4412,
      "Criteri": 4413,
      "relevant": 4414,
      "Sigma": 4415,
      "1_S": 4416,
      "=\\": 4417,
      "T_x": 4418,
      "cro": 4419,
      "cra": 4420,
      "nB": 4421,
      "}}$,": 4422,
      "inequalities": 4423,
      "otimes_F": 4424,
      "f_d": 4425,
      "plane": 4426,
      "covers": 4427,
      "}'}$": 4428,
      "divide": 4429,
      "transitivity": 4430,
      "g_r": 4431,
      "simplices": 4432,
      "curr": 4433,
      "factorizations": 4434,
      "yscra": 4435,
      "studi": 4436,
      "caref": 4437,
      "snake": 4438,
      "Criteria": 4439,
      "yscraper": 4440,
      "'}(\\": 4441,
      "0_T": 4442,
      "22": 4443,
      "Ap": 4444,
      "D2": 4445,
      "Q_i": 4446,
      "TI": 4447,
      "]]/(": 4448,
      "nether": 4449,
      "p_j": 4450,
      "inside": 4451,
      "tionally": 4452,
      "spell": 4453,
      "fibra": 4454,
      "neq": 4455,
      "i_a": 4456,
      "beta_2": 4457,
      "germs": 4458,
      "versions": 4459,
      "Equal": 4460,
      "adjoin": 4461,
      "aleph_0": 4462,
      "netherlander": 4463,
      "Qis": 4464,
      "Rie": 4465,
      "ax": 4466,
      "bn": 4467,
      "cris": 4468,
      "gn": 4469,
      "kl": 4470,
      "qh_": 4471,
      "ises": 4472,
      "seq": 4473,
      "quite": 4474,
      "tai": 4475,
      "times_G": 4476,
      "exts": 4477,
      "Inde": 4478,
      "divides": 4479,
      "checking": 4480,
      "identical": 4481,
      "d_K": 4482,
      "skyscraper": 4483,
      "e_l": 4484,
      "converging": 4485,
      "partition": 4486,
      "Adeq": 4487,
      "studied": 4488,
      ")/(": 4489,
      ")^*$": 4490,
      "21": 4491,
      "Fou": 4492,
      "Frobenius": 4493,
      "H0": 4494,
      "Lp": 4495,
      "qcoh": 4496,
      "ings": 4497,
      "substacks": 4498,
      "localizing": 4499,
      "f_s": 4500,
      "Alter": 4501,
      "mayer": 4502,
      "texts": 4503,
      "nonvanishing": 4504,
      "signi": 4505,
      "A_d": 4506,
      "dim_u": 4507,
      "vietoris": 4508,
      "unctori": 4509,
      "supports": 4510,
      "{+}$": 4511,
      "models": 4512,
      "hilb": 4513,
      "partially": 4514,
      "sieve": 4515,
      "answer": 4516,
      "bniz": 4517,
      "tailed": 4518,
      "Indeed": 4519,
      "Fourier": 4520,
      "signifies": 4521,
      "$''": 4522,
      "CR": 4523,
      "E_j": 4524,
      "W_p": 4525,
      "].": 4526,
      "cess": 4527,
      "dpa": 4528,
      "reverse": 4529,
      "detailed": 4530,
      "(\\{": 4531,
      "tabl": 4532,
      "otimes_C": 4533,
      "$((": 4534,
      "pi_Y": 4535,
      "psi_n": 4536,
      "S_K": 4537,
      "j_p": 4538,
      "}')^\\": 4539,
      "correspondences": 4540,
      "approach": 4541,
      "assertions": 4542,
      "twist": 4543,
      "refining": 4544,
      "explicitly": 4545,
      "translate": 4546,
      "coordinates": 4547,
      "radicial": 4548,
      "analytically": 4549,
      "huge": 4550,
      "!)": 4551,
      ")[\\": 4552,
      "2m": 4553,
      "Ber": 4554,
      "S_k": 4555,
      "e_r": 4556,
      "ibniz": 4557,
      "md": 4558,
      "nN": 4559,
      "n_2": 4560,
      "w_l": 4561,
      "z_n": 4562,
      "issu": 4563,
      "anation": 4564,
      "establ": 4565,
      "sibl": 4566,
      "{\\{\\": 4567,
      "units": 4568,
      "properness": 4569,
      "kappa_i": 4570,
      "ground": 4571,
      "a_3": 4572,
      "Compar": 4573,
      "colim_F": 4574,
      "cutting": 4575,
      "Power": 4576,
      "compactifications": 4577,
      "respectively": 4578,
      "devissage": 4579,
      ":=": 4580,
      "D0": 4581,
      "Mc": 4582,
      "Q_n": 4583,
      "bri": 4584,
      "far": 4585,
      "mind": 4586,
      "nm": 4587,
      "r_j": 4588,
      "y_r": 4589,
      "}:": 4590,
      "matic": 4591,
      "Leibniz": 4592,
      "posing": 4593,
      "lative": 4594,
      "conside": 4595,
      "prestable": 4596,
      "idea": 4597,
      "somewhat": 4598,
      "something": 4599,
      "suming": 4600,
      "Relative": 4601,
      "berg": 4602,
      "analogous": 4603,
      "Complexesstack_": 4604,
      "rectang": 4605,
      "epimorphisms": 4606,
      "modifications": 4607,
      "speaking": 4608,
      "CRIS": 4609,
      "considered": 4610,
      "Dis": 4611,
      "Hod": 4612,
      "\\\"": 4613,
      "][": 4614,
      "n_Z": 4615,
      "pc": 4616,
      "pg_": 4617,
      "information": 4618,
      "rationally": 4619,
      "node": 4620,
      "perhaps": 4621,
      "'}/": 4622,
      "minors": 4623,
      "i_A": 4624,
      "eta_i": 4625,
      "effec": 4626,
      "multiple": 4627,
      "agreement": 4628,
      "indicates": 4629,
      "surjects": 4630,
      "writing": 4631,
      "helper": 4632,
      "Gener": 4633,
      "Hodge": 4634,
      "!}(": 4635,
      "):": 4636,
      "01": 4637,
      "Both": 4638,
      "FTS": 4639,
      "Go": 4640,
      "HS": 4641,
      "Its": 4642,
      "L_2": 4643,
      "May": 4644,
      "Vie": 4645,
      "har": 4646,
      "name": 4647,
      "q_2": 4648,
      "alt": 4649,
      "est": 4650,
      "})^{\\": 4651,
      "cones": 4652,
      "U_x": 4653,
      "vides": 4654,
      "meaning": 4655,
      "lengths": 4656,
      "rho_": 4657,
      "Quillan": 4658,
      "maximum": 4659,
      "baki": 4660,
      "operations": 4661,
      "Post": 4662,
      "borho": 4663,
      "McQuillan": 4664,
      "'}^": 4665,
      "E_k": 4666,
      "Fun": 4667,
      "Give": 4668,
      "Kol": 4669,
      "away": 4670,
      "bber": 4671,
      "qs": 4672,
      "t_j": 4673,
      "zlo": 4674,
      "ist": 4675,
      "reco": 4676,
      "anti": 4677,
      "beha": 4678,
      "supre": 4679,
      "veral": 4680,
      "law": 4681,
      "})^\\#": 4682,
      "subalgebras": 4683,
      "exp": 4684,
      "Theta": 4685,
      "^*)": 4686,
      "Instead": 4687,
      "X_Z": 4688,
      "Algebraization": 4689,
      "regard": 4690,
      "m_y": 4691,
      "sings": 4692,
      "nu_": 4693,
      "neighborho": 4694,
      "glueable": 4695,
      "^!(\\": 4696,
      "}')^": 4697,
      "multiplicativity": 4698,
      "questions": 4699,
      "observations": 4700,
      "Alternative": 4701,
      "supremum": 4702,
      "(*": 4703,
      "Hy": 4704,
      "IN": 4705,
      "IP": 4706,
      "Map": 4707,
      "RQ_X": 4708,
      "c_3": 4709,
      "euler": 4710,
      "kan": 4711,
      "lld": 4712,
      "}^*(": 4713,
      "infinitely": 4714,
      "remo": 4715,
      "role": 4716,
      "finished": 4717,
      "})^{": 4718,
      "conc": 4719,
      "five": 4720,
      "lating": 4721,
      "tribu": 4722,
      "f_T": 4723,
      "}\\{": 4724,
      "'}/\\": 4725,
      "Prove": 4726,
      "'')$.": 4727,
      "))^": 4728,
      "i_r": 4729,
      "freely": 4730,
      "generalize": 4731,
      "x_m": 4732,
      "H_c": 4733,
      "F_iP": 4734,
      "slice": 4735,
      "leading": 4736,
      "quadruple": 4737,
      "cros": 4738,
      "Rb_": 4739,
      "V_p": 4740,
      "\\},": 4741,
      "]}$": 4742,
      "ets": 4743,
      "vir": 4744,
      "{|": 4745,
      "ley": 4746,
      "tower": 4747,
      "provides": 4748,
      "meets": 4749,
      "precomposing": 4750,
      "rown": 4751,
      "diamon": 4752,
      "''(": 4753,
      "Contin": 4754,
      "lambda_n": 4755,
      "specialize": 4756,
      "constra": 4757,
      "F_d": 4758,
      "reach": 4759,
      "homeomorphisms": 4760,
      "@{=>}[": 4761,
      "picture": 4762,
      "composed": 4763,
      "explanation": 4764,
      "lasque": 4765,
      "}^{+}(\\": 4766,
      "careful": 4767,
      "Postnikov": 4768,
      "recogn": 4769,
      "diamond": 4770,
      "2c": 4771,
      "G_1": 4772,
      "N_3": 4773,
      "Q_3": 4774,
      "V_k": 4775,
      "Wri": 4776,
      "W_2": 4777,
      "]]$.": 4778,
      "flasque": 4779,
      "nR": 4780,
      "rin": 4781,
      "scri": 4782,
      "v_": 4783,
      "zing": 4784,
      "enu": 4785,
      "ondal": 4786,
      "several": 4787,
      "espec": 4788,
      "assign": 4789,
      "ries": 4790,
      "subvariety": 4791,
      "}.}.": 4792,
      "^{-}(\\": 4793,
      "doing": 4794,
      "'))$": 4795,
      "plication": 4796,
      "ially": 4797,
      "compactly": 4798,
      "uting": 4799,
      "''$,": 4800,
      "understand": 4801,
      "nolimits_j": 4802,
      "j_V": 4803,
      "traction": 4804,
      "(-,": 4805,
      "known": 4806,
      "injections": 4807,
      "operation": 4808,
      "Deformationcategory_X": 4809,
      ")^*$.": 4810,
      "Resolu": 4811,
      "Replacing": 4812,
      "crossings": 4813,
      "especially": 4814,
      "'}\\": 4815,
      "ID": 4816,
      "Lic": 4817,
      "V_x": 4818,
      "ah": 4819,
      "fal": 4820,
      "k_n": 4821,
      "z_2": 4822,
      "enberg": 4823,
      "temp": 4824,
      "ortho": 4825,
      "mogor": 4826,
      "coequalizers": 4827,
      "prelimin": 4828,
      "X_m": 4829,
      "bijec": 4830,
      "xi_2": 4831,
      "Rel": 4832,
      "minimality": 4833,
      "counit": 4834,
      "agreeing": 4835,
      "downarrow": 4836,
      "steps": 4837,
      "explains": 4838,
      "embeddings": 4839,
      "larger": 4840,
      "denominators": 4841,
      "fibration": 4842,
      "Mayer": 4843,
      "Vietoris": 4844,
      "recognize": 4845,
      "Writing": 4846,
      "License": 4847,
      "mogorov": 4848,
      "2i": 4849,
      "F_p": 4850,
      "H_0": 4851,
      "I_m": 4852,
      "Tri": 4853,
      "\\#": 4854,
      "atives": 4855,
      "cus": 4856,
      "d_n": 4857,
      "p_r": 4858,
      "vis": 4859,
      "w_n": 4860,
      "retraction": 4861,
      "lefschetz": 4862,
      "become": 4863,
      "rac": 4864,
      ")$;": 4865,
      "conce": 4866,
      "intrin": 4867,
      "kappa_": 4868,
      "extre": 4869,
      "}}^{": 4870,
      "i_Z": 4871,
      "concludes": 4872,
      "Hom_B": 4873,
      "finding": 4874,
      "tauto": 4875,
      "\\{*\\": 4876,
      "associativity": 4877,
      "place": 4878,
      "Exercise": 4879,
      "cyclic": 4880,
      "K_m": 4881,
      "composable": 4882,
      "compatibilities": 4883,
      "Below": 4884,
      "looks": 4885,
      "whole": 4886,
      "rectangle": 4887,
      "orthogonal": 4888,
      "!$.": 4889,
      "(!)": 4890,
      ")}/": 4891,
      "DF": 4892,
      "Gl": 4893,
      "Hints": 4894,
      "fol": 4895,
      "ier": 4896,
      "k_0": 4897,
      "pass": 4898,
      "t_d": 4899,
      "orn": 4900,
      "}$}.": 4901,
      "etch": 4902,
      "perp": 4903,
      "tyle": 4904,
      "book": 4905,
      "close": 4906,
      "iding": 4907,
      "smoothing": 4908,
      "stackification": 4909,
      "}'}(": 4910,
      "inverting": 4911,
      "i_k": 4912,
      "U_s": 4913,
      "interpre": 4914,
      "cartier": 4915,
      "formulas": 4916,
      "formulation": 4917,
      "(-)": 4918,
      "deduced": 4919,
      "Compare": 4920,
      "matter": 4921,
      "contractions": 4922,
      "adjoining": 4923,
      "concern": 4924,
      "false": 4925,
      "intrinsic": 4926,
      "Glue": 4927,
      "Base": 4928,
      "C_2": 4929,
      "En": 4930,
      "J_1": 4931,
      "fR": 4932,
      "rong": 4933,
      "s_T": 4934,
      "swit": 4935,
      "smd": 4936,
      "y_d": 4937,
      "rely": 4938,
      "nothing": 4939,
      "takes": 4940,
      "subcomplex": 4941,
      "schematic": 4942,
      "olsson": 4943,
      "longer": 4944,
      "i_3": 4945,
      "S_d": 4946,
      "started": 4947,
      "fold": 4948,
      "vectors": 4949,
      "}(-,": 4950,
      "columns": 4951,
      "Hyper": 4952,
      "*[": 4953,
      "14": 4954,
      "Put": 4955,
      "_H": 4956,
      "mS": 4957,
      "ps": 4958,
      "coar": 4959,
      "}.}": 4960,
      "computing": 4961,
      "X_B": 4962,
      "xi_j": 4963,
      "Coim": 4964,
      "kappa_B": 4965,
      "'}}(": 4966,
      "ilenberg": 4967,
      "Repe": 4968,
      "congru": 4969,
      "Y_d": 4970,
      "constructing": 4971,
      "omega_B": 4972,
      "various": 4973,
      "projectivity": 4974,
      "crystalline": 4975,
      "sugges": 4976,
      "involving": 4977,
      "reformulation": 4978,
      "meeting": 4979,
      "Riemann": 4980,
      "textstyle": 4981,
      "regarding": 4982,
      "Resolution": 4983,
      "*$,": 4984,
      "Cat": 4985,
      "DQ_X": 4986,
      "IJ": 4987,
      "bb": 4988,
      "s_r": 4989,
      "tate": 4990,
      "twi": 4991,
      "uv": 4992,
      "ward": 4993,
      "anity": 4994,
      "actions": 4995,
      "})^*": 4996,
      "times_K": 4997,
      "Conven": 4998,
      "delta_1": 4999,
      "a_t": 5000,
      "trivialization": 5001,
      "n_d": 5002,
      ")^{(": 5003,
      "projectives": 5004,
      "m_AB": 5005,
      "Gamma_c": 5006,
      "w_iw_j": 5007,
      "symmetry": 5008,
      "Deformationcategory_P": 5009,
      "tamely": 5010,
      "proceed": 5011,
      "piece": 5012,
      "coordinate": 5013,
      "Trans": 5014,
      "current": 5015,
      "Comparing": 5016,
      "followed": 5017,
      "twice": 5018,
      ")]$": 5019,
      "*,": 5020,
      "*)$": 5021,
      "0ex": 5022,
      "G_i": 5023,
      "mits": 5024,
      "nA": 5025,
      "pS_": 5026,
      "y_3": 5027,
      "|(": 5028,
      "representations": 5029,
      "leftrightarrow": 5030,
      "leray": 5031,
      "ater": 5032,
      "lot": 5033,
      "ends": 5034,
      "consequences": 5035,
      "f_k": 5036,
      "changed": 5037,
      "nonstandard": 5038,
      "valley": 5039,
      "f_if_j": 5040,
      "jointly": 5041,
      "``$\\": 5042,
      "identities": 5043,
      "Groups": 5044,
      "singularity": 5045,
      "cdots": 5046,
      "]^-\\": 5047,
      "crystals": 5048,
      "reformulate": 5049,
      "multiply": 5050,
      "Hypercoverings": 5051,
      ")}^\\": 5052,
      "*}$.": 5053,
      "2ex": 5054,
      "C_Z": 5055,
      "Maps": 5056,
      "Nullstellensatz": 5057,
      "Ring": 5058,
      "T_p": 5059,
      "Wor": 5060,
      "Y_k": 5061,
      "lary": 5062,
      "ron": 5063,
      "sch": 5064,
      "|)$.": 5065,
      "teg": 5066,
      "ross": 5067,
      "chase": 5068,
      "queness": 5069,
      "ascending": 5070,
      "motives": 5071,
      "ollary": 5072,
      "kills": 5073,
      "Induction": 5074,
      "})$-": 5075,
      "admits": 5076,
      "'}}$": 5077,
      "sum_i": 5078,
      "i_R": 5079,
      "i_x": 5080,
      "mitive": 5081,
      "gamma_A": 5082,
      "\\}}$.": 5083,
      "m_4": 5084,
      "talk": 5085,
      "State": 5086,
      "distinguish": 5087,
      "@{|": 5088,
      "nature": 5089,
      "filtrations": 5090,
      "variants": 5091,
      "occurs": 5092,
      "1234": 5093,
      "repeat": 5094,
      "Uniqueness": 5095,
      "Equalizer": 5096,
      "Conventions": 5097,
      "Per": 5098,
      "Rp_": 5099,
      "Sk": 5100,
      "aker": 5101,
      "bondal": 5102,
      "fx": 5103,
      "renu": 5104,
      "t_r": 5105,
      "won": 5106,
      "wan": 5107,
      "xa": 5108,
      "allowed": 5109,
      "ories": 5110,
      "romann": 5111,
      "rather": 5112,
      "weaker": 5113,
      ")$}": 5114,
      "subobject": 5115,
      "subobjects": 5116,
      "ject": 5117,
      "umeral": 5118,
      "mally": 5119,
      "uples": 5120,
      "ctf": 5121,
      "f_3": 5122,
      "Inter": 5123,
      "changing": 5124,
      "sequently": 5125,
      "}'}(\\": 5126,
      "minants": 5127,
      "theoretical": 5128,
      "others": 5129,
      "situations": 5130,
      "a_d": 5131,
      "Exist": 5132,
      "mbering": 5133,
      "formulated": 5134,
      "]/(\\": 5135,
      "iptic": 5136,
      "Hilbfunctor_": 5137,
      "TR3": 5138,
      "amalg_Z": 5139,
      "Unwinding": 5140,
      "repeated": 5141,
      "@{|->}[": 5142,
      "renumbering": 5143,
      "romannumeral": 5144,
      "Existence": 5145,
      ")})$.": 5146,
      "1_Y": 5147,
      "E_x": 5148,
      "Lf_i": 5149,
      "Ma": 5150,
      "PID": 5151,
      "Rg": 5152,
      "Rj": 5153,
      "brown": 5154,
      "fall": 5155,
      "i_U": 5156,
      "mM": 5157,
      "nigh": 5158,
      "qg_": 5159,
      "your": 5160,
      "review": 5161,
      "gets": 5162,
      "assuming": 5163,
      "sp_": 5164,
      "diffic": 5165,
      "otimes_E": 5166,
      "soon": 5167,
      "sheafy": 5168,
      "nonreduced": 5169,
      "primitive": 5170,
      "}[[": 5171,
      "A_g": 5172,
      "output": 5173,
      "boundedness": 5174,
      "}),\\": 5175,
      "Z_t": 5176,
      "sors": 5177,
      "tiveness": 5178,
      "contract": 5179,
      "Torsors": 5180,
      "gerbes": 5181,
      "multiplicities": 5182,
      "needs": 5183,
      "skew": 5184,
      "skeleton": 5185,
      "effectiveness": 5186,
      "extremally": 5187,
      "switch": 5188,
      "difficul": 5189,
      "/{\\": 5190,
      "Bra": 5191,
      "Ke": 5192,
      "dh": 5193,
      "j_n": 5194,
      "nx": 5195,
      "n_X": 5196,
      "nf_": 5197,
      "pen": 5198,
      "r_t": 5199,
      "wrong": 5200,
      "ying": 5201,
      "|^{-": 5202,
      "phra": 5203,
      "ratic": 5204,
      "dement": 5205,
      "degenerates": 5206,
      "pot": 5207,
      "forces": 5208,
      "impossible": 5209,
      "subfunctor": 5210,
      "ival": 5211,
      "alpha_k": 5212,
      "')/": 5213,
      "Reg": 5214,
      "omega_1": 5215,
      "R_a": 5216,
      "R_g": 5217,
      "continuation": 5218,
      "rrr": 5219,
      "Gamma_J": 5220,
      "Equival": 5221,
      "requirement": 5222,
      "postnikov": 5223,
      "Pullback": 5224,
      "@/^": 5225,
      "Surfaces": 5226,
      "Alternatively": 5227,
      "Putting": 5228,
      "coarse": 5229,
      "Working": 5230,
      "Brauer": 5231,
      "'[-": 5232,
      ")}\\": 5233,
      "16": 5234,
      "Act": 5235,
      "DQ": 5236,
      "Functori": 5237,
      "MS2": 5238,
      "Ro": 5239,
      "Tate": 5240,
      "atori": 5241,
      "gmail": 5242,
      "m_k": 5243,
      "own": 5244,
      "pR_": 5245,
      "q_n": 5246,
      "q_t": 5247,
      "s_x": 5248,
      "tan": 5249,
      "u_j": 5250,
      "x_k": 5251,
      "entries": 5252,
      "def": 5253,
      "cell": 5254,
      "ulti": 5255,
      "stably": 5256,
      "X_r": 5257,
      "existing": 5258,
      "varphi_2": 5259,
      "')/\\": 5260,
      "mary": 5261,
      "whereas": 5262,
      "Hom_k": 5263,
      "never": 5264,
      "'''$": 5265,
      "dividing": 5266,
      "backwards": 5267,
      "quadratic": 5268,
      "\\}})": 5269,
      "A_m": 5270,
      "a_m": 5271,
      "duals": 5272,
      "generalized": 5273,
      "Y_t": 5274,
      "outside": 5275,
      "gotten": 5276,
      "B_r": 5277,
      "contracting": 5278,
      "theta_1": 5279,
      "I_t": 5280,
      "q_K": 5281,
      "^\\#,": 5282,
      "rho_0": 5283,
      "combinatori": 5284,
      "splittings": 5285,
      "compatibly": 5286,
      "variance": 5287,
      "papers": 5288,
      "provide": 5289,
      "trying": 5290,
      "derivative": 5291,
      "General": 5292,
      "Actually": 5293,
      "*)": 5294,
      "D3": 5295,
      "K_U": 5296,
      "Ten": 5297,
      "_w": 5298,
      "_pu": 5299,
      "bad": 5300,
      "bau": 5301,
      "c_r": 5302,
      "ied": 5303,
      "prac": 5304,
      "erc": 5305,
      "six": 5306,
      "sity": 5307,
      "med": 5308,
      "})}$": 5309,
      "acting": 5310,
      "hole": 5311,
      "hodge": 5312,
      "varphi_x": 5313,
      "representability": 5314,
      "generalities": 5315,
      "eta_1": 5316,
      "correspondingly": 5317,
      "V_m": 5318,
      "(-)$": 5319,
      "sketch": 5320,
      "guarantee": 5321,
      "cofinality": 5322,
      "bimodules": 5323,
      "laszlo": 5324,
      "Geometry": 5325,
      "motivation": 5326,
      "Application": 5327,
      "behavi": 5328,
      "script": 5329,
      "bijections": 5330,
      "concerning": 5331,
      "Tensor": 5332,
      "baum": 5333,
      "24": 5334,
      "I_r": 5335,
      "J_2": 5336,
      "K_j": 5337,
      "P1": 5338,
      "h_x": 5339,
      "k_t": 5340,
      "nC": 5341,
      "pA": 5342,
      "s_3": 5343,
      "y_s": 5344,
      "|(|": 5345,
      "}^*$": 5346,
      "inst": 5347,
      "test": 5348,
      "degener": 5349,
      "(\\'": 5350,
      "noether": 5351,
      "tations": 5352,
      "couple": 5353,
      "preadditive": 5354,
      "ific": 5355,
      "thereby": 5356,
      "}'\\": 5357,
      "corner": 5358,
      "i_s": 5359,
      "U_a": 5360,
      "U_t": 5361,
      "A_3": 5362,
      "omega_i": 5363,
      "x_c": 5364,
      "characterizes": 5365,
      "discussing": 5366,
      "bourbaki": 5367,
      "decrease": 5368,
      "partial_A": 5369,
      "decomposed": 5370,
      "reasons": 5371,
      "Gamma_I": 5372,
      "modify": 5373,
      "selves": 5374,
      "i_0i_1i_2": 5375,
      "ubian": 5376,
      "Pulling": 5377,
      "Bergh": 5378,
      "Discri": 5379,
      "Continuing": 5380,
      "constraint": 5381,
      "custo": 5382,
      "Repeating": 5383,
      "practice": 5384,
      "-)$.": 5385,
      "A1": 5386,
      "Ba": 5387,
      "Cl": 5388,
      "D_j": 5389,
      "Gm": 5390,
      "Pi": 5391,
      "Ray": 5392,
      "T_r": 5393,
      "Zorn": 5394,
      "]/\\": 5395,
      "fth": 5396,
      "ile": 5397,
      "lfp": 5398,
      "sanity": 5399,
      "usion": 5400,
      "|)": 5401,
      "}}$-": 5402,
      "}]/(": 5403,
      "thinking": 5404,
      "lecture": 5405,
      "unity": 5406,
      "did": 5407,
      "fifth": 5408,
      "They": 5409,
      "'$).": 5410,
      "}^+": 5411,
      "pointwise": 5412,
      "separatedness": 5413,
      "integra": 5414,
      "',\\": 5415,
      "noncommutative": 5416,
      "beta_j": 5417,
      "\\}},": 5418,
      "sigma_1": 5419,
      "monomial": 5420,
      "Y_Z": 5421,
      "sures": 5422,
      "Composition": 5423,
      ")^!": 5424,
      "T_s": 5425,
      "Affine": 5426,
      "endix": 5427,
      "compactify": 5428,
      "Stein": 5429,
      "verified": 5430,
      "Geometri": 5431,
      "treated": 5432,
      "Fundamental": 5433,
      "Kolmogorov": 5434,
      "ercises": 5435,
      "behaviour": 5436,
      "Discriminants": 5437,
      ")!": 5438,
      ")}.": 5439,
      "Lq": 5440,
      "RT": 5441,
      "Two": 5442,
      "_v": 5443,
      "ck": 5444,
      "d_A": 5445,
      "i0": 5446,
      "k_2": 5447,
      "{}'": 5448,
      "ality": 5449,
      "sees": 5450,
      "omen": 5451,
      "shap": 5452,
      "times_M": 5453,
      "while": 5454,
      "sionally": 5455,
      "typ": 5456,
      "cohen": 5457,
      "paration": 5458,
      "alpha_j": 5459,
      "apping": 5460,
      "X_v": 5461,
      "')(": 5462,
      "')^{\\": 5463,
      "matrices": 5464,
      "zerodivisor": 5465,
      "ils": 5466,
      "equalizes": 5467,
      "regularity": 5468,
      "gamma_p": 5469,
      "gamma_B": 5470,
      "Ext_": 5471,
      "pleas": 5472,
      "Compu": 5473,
      "henselizations": 5474,
      "Chapter": 5475,
      "Locally": 5476,
      "Picardfunctor": 5477,
      "0_c": 5478,
      "involved": 5479,
      "verifies": 5480,
      "shape": 5481,
      "Br": 5482,
      "Dn": 5483,
      "])$,": 5484,
      "asitic": 5485,
      "bably": 5486,
      "iA": 5487,
      "liv": 5488,
      "old": 5489,
      "scal": 5490,
      "v_0": 5491,
      "z_0": 5492,
      "|}": 5493,
      "|)$": 5494,
      "enlarge": 5495,
      "enomen": 5496,
      "ank": 5497,
      "sits": 5498,
      "sided": 5499,
      "phenomen": 5500,
      "probably": 5501,
      "}$;": 5502,
      "forth": 5503,
      "subject": 5504,
      "seem": 5505,
      "$-\\": 5506,
      "hausdorff": 5507,
      "X_a": 5508,
      "Asser": 5509,
      "brevi": 5510,
      "advan": 5511,
      "zeroth": 5512,
      "interes": 5513,
      "ticross": 5514,
      "associate": 5515,
      "M_g": 5516,
      "epsilon_n": 5517,
      "decreasing": 5518,
      "arguing": 5519,
      "fou": 5520,
      "F_u": 5521,
      "auth": 5522,
      "Parasitic": 5523,
      "decompositions": 5524,
      "...": 5525,
      "requires": 5526,
      "casionally": 5527,
      "virt": 5528,
      "instance": 5529,
      "interested": 5530,
      "$!": 5531,
      "2_1": 5532,
      "DD": 5533,
      "Rim": 5534,
      "RSheafHom": 5535,
      "Z_x": 5536,
      "_z": 5537,
      "aut": 5538,
      "c_n": 5539,
      "jshriek": 5540,
      "pd": 5541,
      "p_3": 5542,
      "r_n": 5543,
      "}])": 5544,
      "recur": 5545,
      "tibility": 5546,
      "$.}.": 5547,
      "process": 5548,
      "acob": 5549,
      "mov": 5550,
      "covariance": 5551,
      "jecture": 5552,
      "}({\\": 5553,
      "preordered": 5554,
      "logically": 5555,
      "'$)": 5556,
      "latter": 5557,
      "ruu": 5558,
      "^*$,": 5559,
      "sole": 5560,
      "')}(": 5561,
      "')^*$": 5562,
      "Although": 5563,
      "pione": 5564,
      "}'')": 5565,
      "i_S": 5566,
      "Gabber": 5567,
      "D_Z": 5568,
      "g_s": 5569,
      "publ": 5570,
      "checks": 5571,
      "M_e": 5572,
      "transfinite": 5573,
      "SheafExt": 5574,
      "multicross": 5575,
      "Ext_A": 5576,
      "K_3": 5577,
      "theta_2": 5578,
      "amalg_X": 5579,
      "relate": 5580,
      "requiring": 5581,
      "occasionally": 5582,
      "developed": 5583,
      "help": 5584,
      "Exactly": 5585,
      "establish": 5586,
      "assignment": 5587,
      "fourier": 5588,
      "'})$,": 5589,
      "1_A": 5590,
      "2t": 5591,
      "Can": 5592,
      "E_3": 5593,
      "G_2": 5594,
      "Or": 5595,
      "]|\\": 5596,
      "amb": 5597,
      "epi": 5598,
      "e_R": 5599,
      "gm": 5600,
      "hard": 5601,
      "lf": 5602,
      "nb": 5603,
      "n_x": 5604,
      "v_2": 5605,
      "tool": 5606,
      "})}}(": 5607,
      "subfields": 5608,
      "exam": 5609,
      "f_U": 5610,
      "gatory": 5611,
      "irrelevant": 5612,
      "none": 5613,
      "beta_0": 5614,
      "$\\{(": 5615,
      "a_r": 5616,
      "S_r": 5617,
      "m_C": 5618,
      "homs": 5619,
      "ligatory": 5620,
      "specializing": 5621,
      "godement": 5622,
      "CH_0": 5623,
      "_GG": 5624,
      "confusion": 5625,
      "MS3": 5626,
      "issues": 5627,
      "preliminary": 5628,
      "repeatedly": 5629,
      "customary": 5630,
      "$*$": 5631,
      ");": 5632,
      "D_0": 5633,
      "E_m": 5634,
      "Find": 5635,
      "H_2": 5636,
      "Many": 5637,
      "MS1": 5638,
      "RG": 5639,
      "his": 5640,
      "kj": 5641,
      "lin": 5642,
      "w_0": 5643,
      "wrt": 5644,
      "{{\\": 5645,
      "rewrite": 5646,
      "tim": 5647,
      "aries": 5648,
      "cocartesian": 5649,
      "shall": 5650,
      "subsheaves": 5651,
      "subquotients": 5652,
      "fill": 5653,
      "aforem": 5654,
      "locality": 5655,
      "permu": 5656,
      "obligatory": 5657,
      "X_W": 5658,
      "bigraded": 5659,
      "')\\": 5660,
      "surfaces": 5661,
      "shouts": 5662,
      "compactness": 5663,
      "Projective": 5664,
      "pi_n": 5665,
      "sum_j": 5666,
      "i_t": 5667,
      "implied": 5668,
      "A_p": 5669,
      "irreducibles": 5670,
      "Y_3": 5671,
      "Z_m": 5672,
      "Composing": 5673,
      "W_t": 5674,
      "ummer": 5675,
      "dim_v": 5676,
      "}')^{\\": 5677,
      "d_M": 5678,
      "strata": 5679,
      "entioned": 5680,
      "increase": 5681,
      "comparing": 5682,
      "refers": 5683,
      "verifying": 5684,
      "ordinals": 5685,
      "134": 5686,
      "TR1": 5687,
      "Under": 5688,
      "Smoothing": 5689,
      "Pushouts": 5690,
      "--------": 5691,
      "tempor": 5692,
      "phrase": 5693,
      "aforementioned": 5694,
      "1_i": 5695,
      "Cover": 5696,
      "C_a": 5697,
      "G_K": 5698,
      "Jacob": 5699,
      "b_m": 5700,
      "fas": 5701,
      "hl": 5702,
      "mom": 5703,
      "nullstellensatz": 5704,
      "pth": 5705,
      "task": 5706,
      "uth": 5707,
      "xleftarrow": 5708,
      "aract": 5709,
      "dedekind": 5710,
      "overla": 5711,
      "stup": 5712,
      "})})": 5713,
      "conjecture": 5714,
      "times_y": 5715,
      "varphi_V": 5716,
      "')[": 5717,
      "kappa_2": 5718,
      "extra": 5719,
      "}'}^\\": 5720,
      "psi_1": 5721,
      "i_Y": 5722,
      "Gamma_T": 5723,
      "Constru": 5724,
      "lambda_2": 5725,
      "x_a": 5726,
      "sigma_0": 5727,
      "j_s": 5728,
      "Z_a": 5729,
      "roughly": 5730,
      "B_f": 5731,
      "abbrevi": 5732,
      "n_a": 5733,
      "elliptic": 5734,
      "depending": 5735,
      "pi_d": 5736,
      "sheafify": 5737,
      "Variant": 5738,
      "rho_U": 5739,
      "rangle_": 5740,
      "gamma_C": 5741,
      "}^*(\\": 5742,
      "avo": 5743,
      "^-(": 5744,
      "evaluating": 5745,
      "seminormalization": 5746,
      "parametrizing": 5747,
      "siblings": 5748,
      "bridge": 5749,
      "suggests": 5750,
      "C_ZX": 5751,
      "Functoriality": 5752,
      "lectures": 5753,
      "Compute": 5754,
      "moment": 5755,
      "stupid": 5756,
      "$?": 5757,
      "($": 5758,
      ")'": 5759,
      "Blow": 5760,
      "F_j": 5761,
      "JA": 5762,
      "JM": 5763,
      "Karo": 5764,
      "Open": 5765,
      "V_Y": 5766,
      "]))": 5767,
      "bif": 5768,
      "gcd": 5769,
      "hd": 5770,
      "lqc": 5771,
      "nH": 5772,
      "n_n": 5773,
      "pf": 5774,
      "r_p": 5775,
      "definite": 5776,
      "unwinding": 5777,
      "cid": 5778,
      "alpha_s": 5779,
      "izable": 5780,
      "appear": 5781,
      "phi_i": 5782,
      "varphi_0": 5783,
      "south": 5784,
      "}}{": 5785,
      "''}$.": 5786,
      "commuting": 5787,
      "rant": 5788,
      "nonnegative": 5789,
      "quadrant": 5790,
      "A_w": 5791,
      "D_c": 5792,
      "x_s": 5793,
      "interven": 5794,
      ")]{": 5795,
      "linearity": 5796,
      "ranks": 5797,
      "jump": 5798,
      "'})^\\": 5799,
      ")\\}$.": 5800,
      "consistent": 5801,
      "determinants": 5802,
      "reasoning": 5803,
      "Conditions": 5804,
      "Restri": 5805,
      "conclusions": 5806,
      "TR4": 5807,
      "cube": 5808,
      "Most": 5809,
      "neighborhood": 5810,
      "closely": 5811,
      "Equivalently": 5812,
      "degeneracy": 5813,
      "scalar": 5814,
      "Karoubian": 5815,
      "!}(\\": 5816,
      "$''.": 5817,
      "$+$": 5818,
      "09": 5819,
      "17": 5820,
      "1_Z": 5821,
      "2_0": 5822,
      "D_k": 5823,
      "Euler": 5824,
      "F_X": 5825,
      "G_n": 5826,
      "G_x": 5827,
      "IR": 5828,
      "Lf_": 5829,
      "Non": 5830,
      "Pr": 5831,
      "\\`": 5832,
      "i1": 5833,
      "kol": 5834,
      "o_x": 5835,
      "ui": 5836,
      "u_a": 5837,
      "ucid": 5838,
      "zard": 5839,
      "}}.": 5840,
      "~>}[": 5841,
      "toli": 5842,
      "$.}": 5843,
      "sus": 5844,
      "verba": 5845,
      "contribu": 5846,
      "times_H": 5847,
      "jectivity": 5848,
      "dilat": 5849,
      "uparrow": 5850,
      "hathat": 5851,
      "$((\\": 5852,
      "ichten": 5853,
      "varphi_U": 5854,
      "xi_0": 5855,
      "universe": 5856,
      "ille": 5857,
      "minor": 5858,
      "beta_n": 5859,
      "delta_j": 5860,
      "delta_Z": 5861,
      "g_c": 5862,
      "epsilon_Y": 5863,
      "handled": 5864,
      "Expos": 5865,
      "hyank": 5866,
      "n_e": 5867,
      "@{~>}[": 5868,
      "}]}": 5869,
      "chains": 5870,
      "Sometimes": 5871,
      "doubled": 5872,
      "gamma_D": 5873,
      "}^\\#,": 5874,
      "elucid": 5875,
      "Localization": 5876,
      "Corollary": 5877,
      "automatic": 5878,
      "w_kw_l": 5879,
      "conflic": 5880,
      "tautologically": 5881,
      "\\{*\\}": 5882,
      "Main": 5883,
      "verbatim": 5884,
      "dilatations": 5885,
      "ichtenbaum": 5886,
      "hyankar": 5887,
      "0_Z": 5888,
      "1_U": 5889,
      "BL": 5890,
      "Dia": 5891,
      "Lb": 5892,
      "Ne": 5893,
      "Other": 5894,
      "RHS": 5895,
      "]^{-": 5896,
      "_4": 5897,
      "amo": 5898,
      "care": 5899,
      "capping": 5900,
      "fer": 5901,
      "nc": 5902,
      "ped": 5903,
      "pur": 5904,
      "t_a": 5905,
      "uring": 5906,
      "uous": 5907,
      "warning": 5908,
      "{}''": 5909,
      "inj": 5910,
      "representation": 5911,
      "ress": 5912,
      "versus": 5913,
      "}$:": 5914,
      "{\\'": 5915,
      "})^*\\": 5916,
      "subvarieties": 5917,
      "expec": 5918,
      "}({}": 5919,
      "kil": 5920,
      "varying": 5921,
      "closedness": 5922,
      "phi_": 5923,
      "generation": 5924,
      "}\\}$.": 5925,
      "places": 5926,
      "}}/": 5927,
      "}}})": 5928,
      "Problem": 5929,
      "pi_T": 5930,
      "delta_2": 5931,
      "U_r": 5932,
      "word": 5933,
      "toric": 5934,
      "x_e": 5935,
      "Y_m": 5936,
      "K_e": 5937,
      "Mor_F": 5938,
      "graphs": 5939,
      "binom": 5940,
      "collections": 5941,
      "stratify": 5942,
      "^\\#$.": 5943,
      "lim_e": 5944,
      "dgm": 5945,
      "^{+}(": 5946,
      "setoid": 5947,
      "feature": 5948,
      "intersecting": 5949,
      "pairings": 5950,
      "sibling": 5951,
      "Trivial": 5952,
      "wanted": 5953,
      "DQ_Y": 5954,
      "Diagram": 5955,
      "amoun": 5956,
      "purpose": 5957,
      "0_0": 5958,
      "1_V": 5959,
      "2_2": 5960,
      "34": 5961,
      "FP_": 5962,
      "G_U": 5963,
      "K_p": 5964,
      "Vis": 5965,
      "]),": 5966,
      "aw": 5967,
      "e_k": 5968,
      "e_x": 5969,
      "fre": 5970,
      "igen": 5971,
      "mc": 5972,
      "ny": 5973,
      "otient": 5974,
      "r_k": 5975,
      "spot": 5976,
      "w_h": 5977,
      "zu": 5978,
      "z_r": 5979,
      "incar": 5980,
      "mathe": 5981,
      "behave": 5982,
      "$\\#": 5983,
      "arith": 5984,
      "loci": 5985,
      "asking": 5986,
      "move": 5987,
      "subscript": 5988,
      "belong": 5989,
      "aff": 5990,
      "precompose": 5991,
      "obsole": 5992,
      "had": 5993,
      "$(*)$": 5994,
      "^*,": 5995,
      "Invariant": 5996,
      "phi_1": 5997,
      "')^*(": 5998,
      "mu_j": 5999,
      "mukai": 6000,
      "kappa_1": 6001,
      "neither": 6002,
      "priori": 6003,
      "Consequently": 6004,
      "Reduction": 6005,
      "}|$,": 6006,
      "twocell": 6007,
      "M_A": 6008,
      "B_d": 6009,
      "Expl": 6010,
      "referenced": 6011,
      "Descending": 6012,
      "strateg": 6013,
      "^\\#)": 6014,
      "verifications": 6015,
      "contradicting": 6016,
      "Check": 6017,
      "Add": 6018,
      "hion": 6019,
      "naively": 6020,
      "suitably": 6021,
      "symbols": 6022,
      "intersects": 6023,
      "Bound": 6024,
      "matches": 6025,
      "drops": 6026,
      "Surjectivity": 6027,
      "Going": 6028,
      "remove": 6029,
      "ront": 6030,
      "Statement": 6031,
      "lives": 6032,
      "phenomenon": 6033,
      "temporarily": 6034,
      "fashion": 6035,
      "conflict": 6036,
      ")=": 6037,
      "2M": 6038,
      "C_m": 6039,
      "During": 6040,
      "FP": 6041,
      "Ju": 6042,
      "Over": 6043,
      "Top": 6044,
      "bing": 6045,
      "d_k": 6046,
      "d_x": 6047,
      "email": 6048,
      "eigen": 6049,
      "href": 6050,
      "nes": 6051,
      "pJ": 6052,
      "sent": 6053,
      "squ": 6054,
      "ton": 6055,
      "y_t": 6056,
      "|,": 6057,
      "err": 6058,
      "ers": 6059,
      "overring": 6060,
      "})}$.": 6061,
      "shing": 6062,
      "subgraphs": 6063,
      "chevalley": 6064,
      "algebraizable": 6065,
      "erits": 6066,
      "however": 6067,
      "dow": 6068,
      "pi_j": 6069,
      "Spacesstack_": 6070,
      "colim_n": 6071,
      "Hom_S": 6072,
      "U_W": 6073,
      "gamma_m": 6074,
      "facto": 6075,
      "m_r": 6076,
      "sigma_n": 6077,
      "j_a": 6078,
      "Semistable": 6079,
      "R_Z": 6080,
      "identically": 6081,
      "Exal": 6082,
      "K_t": 6083,
      "Compa": 6084,
      "W_l": 6085,
      "I_a": 6086,
      "mostly": 6087,
      "^!$.": 6088,
      "}]$,": 6089,
      "Clear": 6090,
      "problems": 6091,
      "incare": 6092,
      "Quotfunctor": 6093,
      "converg": 6094,
      "inherits": 6095,
      "successively": 6096,
      "larging": 6097,
      "derivatives": 6098,
      "Exactness": 6099,
      "treat": 6100,
      "issue": 6101,
      "schlessinger": 6102,
      "Roch": 6103,
      "advanta": 6104,
      "overlaps": 6105,
      "killed": 6106,
      "strategy": 6107,
      ")=$``$": 6108,
      "2a_": 6109,
      "Abo": 6110,
      "Col": 6111,
      "Eilenberg": 6112,
      "LHS": 6113,
      "Rk": 6114,
      "Xi": 6115,
      "c_Z": 6116,
      "dE": 6117,
      "eman": 6118,
      "ffi": 6119,
      "gf": 6120,
      "g_k": 6121,
      "lude": 6122,
      "q_Z": 6123,
      "t_x": 6124,
      "u_T": 6125,
      "v_j": 6126,
      "y_k": 6127,
      "enlarging": 6128,
      "recovering": 6129,
      "arri": 6130,
      "suffi": 6131,
      "dete": 6132,
      "ascent": 6133,
      "popes": 6134,
      "ully": 6135,
      "brauer": 6136,
      "subgroups": 6137,
      "ational": 6138,
      "ched": 6139,
      "Theories": 6140,
      "limp": 6141,
      "presence": 6142,
      "prescri": 6143,
      "grade": 6144,
      "bases": 6145,
      "plic": 6146,
      "notin": 6147,
      "}}|": 6148,
      "}}/\\": 6149,
      "entirely": 6150,
      "minimum": 6151,
      "))^{": 6152,
      "))}(": 6153,
      "Redu": 6154,
      "might": 6155,
      "A_x": 6156,
      "g_l": 6157,
      "discusses": 6158,
      "Y_K": 6159,
      "Y_T": 6160,
      "Z_3": 6161,
      "continues": 6162,
      "trivializing": 6163,
      "h_T": 6164,
      "diagonals": 6165,
      "glu": 6166,
      "include": 6167,
      "theta_i": 6168,
      "missing": 6169,
      "jug": 6170,
      "Similar": 6171,
      "analogy": 6172,
      "^{+}": 6173,
      "cohomologies": 6174,
      "Psi_": 6175,
      "basics": 6176,
      "correctly": 6177,
      "passes": 6178,
      "w_jw_k": 6179,
      "Modu": 6180,
      "sieves": 6181,
      "tricky": 6182,
      "Phi_K": 6183,
      "established": 6184,
      "neighborhoods": 6185,
      "congruence": 6186,
      "integrable": 6187,
      "compactifyable": 6188,
      "Geometrically": 6189,
      "Assertion": 6190,
      "virtual": 6191,
      "Princi": 6192,
      "Just": 6193,
      "suffice": 6194,
      "popescu": 6195,
      "').": 6196,
      ")=$``": 6197,
      "2k": 6198,
      ">>": 6199,
      "Even": 6200,
      "Ess": 6201,
      "Fal": 6202,
      "Hensel": 6203,
      "Higher": 6204,
      "JB": 6205,
      "Multi": 6206,
      "Same": 6207,
      "Y_x": 6208,
      "]}\\": 6209,
      "crete": 6210,
      "dges": 6211,
      "frequ": 6212,
      "kward": 6213,
      "uu": 6214,
      "xA": 6215,
      "arrange": 6216,
      "ingular": 6217,
      "That": 6218,
      "lai": 6219,
      "moving": 6220,
      "wich": 6221,
      "lattice": 6222,
      "upgrade": 6223,
      "paren": 6224,
      "int_f": 6225,
      "^{-}(": 6226,
      "X_w": 6227,
      "}^+(": 6228,
      "reducing": 6229,
      "adding": 6230,
      "stackify": 6231,
      "psi_2": 6232,
      "psi_j": 6233,
      "ranges": 6234,
      "tings": 6235,
      "versally": 6236,
      "Lambda_i": 6237,
      "representatives": 6238,
      "ishing": 6239,
      "lambda_j": 6240,
      "A_r": 6241,
      "vice": 6242,
      "D_T": 6243,
      "M_d": 6244,
      "erizing": 6245,
      "Y_z": 6246,
      "transfer": 6247,
      "topic": 6248,
      "Z_d": 6249,
      "V_W": 6250,
      "rrrr": 6251,
      "constructibles": 6252,
      "formulae": 6253,
      "cdot_": 6254,
      "b_s": 6255,
      "}]/": 6256,
      "],\\": 6257,
      "y_b": 6258,
      "{+}": 6259,
      "Quotient": 6260,
      "possibilities": 6261,
      "twists": 6262,
      "remaining": 6263,
      "occurring": 6264,
      "${}^\\": 6265,
      "Modi": 6266,
      "greater": 6267,
      "bridges": 6268,
      "Theta_": 6269,
      "Endow": 6270,
      "Regular": 6271,
      "abbreviate": 6272,
      "Blowing": 6273,
      "expected": 6274,
      "Vistoli": 6275,
      "awkward": 6276,
      "Compatibility": 6277,
      "Above": 6278,
      "Faltings": 6279,
      "!^{": 6280,
      "($\\": 6281,
      ")}|": 6282,
      "18": 6283,
      "3_k": 6284,
      "Clo": 6285,
      "CLambda": 6286,
      "F_U": 6287,
      "N_0": 6288,
      "R_j": 6289,
      "Rc_": 6290,
      "Rq_": 6291,
      "W_x": 6292,
      "]|": 6293,
      "]}$.": 6294,
      "h_Y": 6295,
      "iM": 6296,
      "iar": 6297,
      "tuples": 6298,
      "thy": 6299,
      "mation": 6300,
      "maind": 6301,
      "return": 6302,
      "arises": 6303,
      "loor": 6304,
      "ecom": 6305,
      "Through": 6306,
      "quick": 6307,
      "quanti": 6308,
      "poles": 6309,
      "notice": 6310,
      "conversely": 6311,
      "times_l": 6312,
      "perform": 6313,
      "appe": 6314,
      "'))$.": 6315,
      "}^+$": 6316,
      "longleftarrow": 6317,
      "added": 6318,
      "pi_3": 6319,
      "produced": 6320,
      "Formation": 6321,
      "i_g": 6322,
      "chart": 6323,
      "}/(\\": 6324,
      ")}{": 6325,
      "D_e": 6326,
      "m_5": 6327,
      "omega_2": 6328,
      "R_r": 6329,
      "lifted": 6330,
      "homotopies": 6331,
      "1_D": 6332,
      "descriptions": 6333,
      "against": 6334,
      "Addi": 6335,
      "themselves": 6336,
      "icitly": 6337,
      "z_l": 6338,
      "Poincar": 6339,
      "stabilizes": 6340,
      "Sub": 6341,
      "briel": 6342,
      "centralizer": 6343,
      "improvement": 6344,
      "ABC": 6345,
      "switching": 6346,
      "difficult": 6347,
      "Tensoring": 6348,
      "monomials": 6349,
      "typical": 6350,
      "authors": 6351,
      "ambig": 6352,
      "permutation": 6353,
      "advantage": 6354,
      "arrive": 6355,
      "frequently": 6356,
      "mainder": 6357,
      "Throughout": 6358,
      "'[[": 6359,
      "*}$,": 6360,
      "15": 6361,
      "2N": 6362,
      "3w": 6363,
      ":\\": 6364,
      "A6": 6365,
      "Cech": 6366,
      "Har": 6367,
      "J_t": 6368,
      "Rhom": 6369,
      "UR": 6370,
      "Val": 6371,
      "W_r": 6372,
      "[]": 6373,
      "[(\\": 6374,
      "[\\{": 6375,
      "]}(": 6376,
      "bstru": 6377,
      "c_m": 6378,
      "d_V": 6379,
      "e_A": 6380,
      "e_a": 6381,
      "eilenberg": 6382,
      "fli": 6383,
      "gD": 6384,
      "jl": 6385,
      "job": 6386,
      "japanese": 6387,
      "nE": 6388,
      "rm": 6389,
      "t_0": 6390,
      "vare": 6391,
      "west": 6392,
      "z_k": 6393,
      "iscrete": 6394,
      "chose": 6395,
      "dumb": 6396,
      "poincare": 6397,
      "improved": 6398,
      "nobstru": 6399,
      "motive": 6400,
      "})})$.": 6401,
      "cont": 6402,
      "subcanonical": 6403,
      "dily": 6404,
      "indiscrete": 6405,
      "mbia": 6406,
      "')]": 6407,
      "surj": 6408,
      "xi_m": 6409,
      "desingular": 6410,
      "Deformations": 6411,
      "shot": 6412,
      "'}}(\\": 6413,
      "neut": 6414,
      "pi_x": 6415,
      "tini": 6416,
      "nolimits_n": 6417,
      "Choosing": 6418,
      "normality": 6419,
      "g_t": 6420,
      "theorems": 6421,
      "x_K": 6422,
      "R_W": 6423,
      "_pf": 6424,
      "maximality": 6425,
      "connectedness": 6426,
      "B_3": 6427,
      "V_d": 6428,
      "{-}": 6429,
      "varphi_a": 6430,
      "readily": 6431,
      "H_v": 6432,
      "dim_t": 6433,
      "trary": 6434,
      "projector": 6435,
      "Formally": 6436,
      "achie": 6437,
      "twisting": 6438,
      "Points": 6439,
      "G_u": 6440,
      "involves": 6441,
      "witness": 6442,
      "fibers": 6443,
      "${}'": 6444,
      "avoidance": 6445,
      "license": 6446,
      "keeping": 6447,
      "concepts": 6448,
      "congruent": 6449,
      "combinatorially": 6450,
      "Applications": 6451,
      ")!}{": 6452,
      "pleasing": 6453,
      "lines": 6454,
      "Neeman": 6455,
      "Colimits": 6456,
      "appeal": 6457,
      "varepsilon": 6458,
      "nobstructed": 6459,
      "neutral": 6460,
      "!$,": 6461,
      "!}$.": 6462,
      "'.": 6463,
      "1c_": 6464,
      "?}": 6465,
      "Cy": 6466,
      "Clas": 6467,
      "Dim": 6468,
      "Gare": 6469,
      "Gru": 6470,
      "N_j": 6471,
      "Normal": 6472,
      "Z_U": 6473,
      "\\})$.": 6474,
      "_Q": 6475,
      "atop": 6476,
      "cit": 6477,
      "d_S": 6478,
      "gx": 6479,
      "hB": 6480,
      "ht": 6481,
      "iF": 6482,
      "ience": 6483,
      "k_j": 6484,
      "pS": 6485,
      "tuple": 6486,
      "u_m": 6487,
      "unobstructed": 6488,
      "vent": 6489,
      "z_t": 6490,
      "mate": 6491,
      "inspec": 6492,
      "inner": 6493,
      "alg": 6494,
      "remainder": 6495,
      "ancy": 6496,
      "thetical": 6497,
      "art": 6498,
      "super": 6499,
      "tshor": 6500,
      "posee": 6501,
      "posable": 6502,
      "strange": 6503,
      "unchanged": 6504,
      "coprojections": 6505,
      "context": 6506,
      "consul": 6507,
      "permissible": 6508,
      "indecom": 6509,
      "'$;": 6510,
      "upshot": 6511,
      "kizu": 6512,
      "gabber": 6513,
      "genic": 6514,
      "ffdescent": 6515,
      "osely": 6516,
      "Cotangent": 6517,
      "diag": 6518,
      "titled": 6519,
      "anything": 6520,
      "Hom_U": 6521,
      ")))$": 6522,
      "tices": 6523,
      "i_5": 6524,
      "U_Z": 6525,
      "U_w": 6526,
      "Obvious": 6527,
      "gamma_0": 6528,
      "join": 6529,
      "m_p": 6530,
      "g_3": 6531,
      "bounds": 6532,
      "states": 6533,
      "'/(\\": 6534,
      "truth": 6535,
      "igno": 6536,
      "B_m": 6537,
      "standing": 6538,
      "Exposee": 6539,
      "]^{(\\": 6540,
      "describing": 6541,
      "1_G": 6542,
      "1_M": 6543,
      "n_K": 6544,
      "Once": 6545,
      "reads": 6546,
      "^![": 6547,
      "annihilate": 6548,
      "Appendix": 6549,
      "stratum": 6550,
      "acyclics": 6551,
      "naturally": 6552,
      "Che": 6553,
      "Charact": 6554,
      "obviously": 6555,
      "convenience": 6556,
      "cardinals": 6557,
      "composite": 6558,
      "familiar": 6559,
      "skipped": 6560,
      "hulls": 6561,
      "express": 6562,
      "Injectivity": 6563,
      "witnes": 6564,
      "subextensions": 6565,
      "partial_z": 6566,
      "monogenic": 6567,
      "Replace": 6568,
      "parametrize": 6569,
      "multiplying": 6570,
      "bifunctori": 6571,
      "intervention": 6572,
      "mathema": 6573,
      "Moduli": 6574,
      "Principal": 6575,
      "Closed": 6576,
      "Dimension": 6577,
      "Garel": 6578,
      "GruRay": 6579,
      "inspection": 6580,
      "tshorne": 6581,
      "consult": 6582,
      "indecomposable": 6583,
      "kizuki": 6584,
      "$+": 6585,
      "$=$": 6586,
      "':": 6587,
      "'^{-": 6588,
      "'|$.": 6589,
      ")-": 6590,
      ")}^\\#": 6591,
      ".]": 6592,
      "Bhat": 6593,
      "C_t": 6594,
      "Dou": 6595,
      "Eff": 6596,
      "Fully": 6597,
      "Ir": 6598,
      "K0": 6599,
      "Ol": 6600,
      "P_j": 6601,
      "Q_j": 6602,
      "T_k": 6603,
      "Texts": 6604,
      "Up": 6605,
      "cuts": 6606,
      "eds": 6607,
      "kk": 6608,
      "ks": 6609,
      "mR": 6610,
      "oka": 6611,
      "pB": 6612,
      "pA_": 6613,
      "rend": 6614,
      "tA": 6615,
      "xz": 6616,
      "reier": 6617,
      "tell": 6618,
      "ange": 6619,
      "beau": 6620,
      "proxima": 6621,
      "metic": 6622,
      "quillan": 6623,
      "ital": 6624,
      "})})$": 6625,
      "conjug": 6626,
      "subtopos": 6627,
      "dies": 6628,
      "dient": 6629,
      "exercises": 6630,
      "apted": 6631,
      "^{-\\": 6632,
      "^*)$": 6633,
      "Injective": 6634,
      "X_z": 6635,
      "showed": 6636,
      "adapted": 6637,
      "dist": 6638,
      "distribu": 6639,
      "pi_U": 6640,
      "wedge_D": 6641,
      "}')$,": 6642,
      "deg_": 6643,
      "delta_0": 6644,
      "\\}}\\": 6645,
      "a_I": 6646,
      "m_a": 6647,
      "omega_R": 6648,
      "g_p": 6649,
      "Considering": 6650,
      "generalizes": 6651,
      "sigma_T": 6652,
      "sigma_a": 6653,
      "M_m": 6654,
      "bounding": 6655,
      "speci": 6656,
      "simpli": 6657,
      "simplify": 6658,
      "1_K": 6659,
      "notes": 6660,
      "*((": 6661,
      "dim_w": 6662,
      "hypersurface": 6663,
      "ArtinII": 6664,
      "Sch_h": 6665,
      "consist": 6666,
      "simplest": 6667,
      "^+$": 6668,
      "Fibre": 6669,
      "Change": 6670,
      "easiest": 6671,
      "relies": 6672,
      "TR2": 6673,
      "techni": 6674,
      "Matlis": 6675,
      "repeating": 6676,
      "mailto": 6677,
      "elsewhere": 6678,
      ")^\\#$": 6679,
      "neron": 6680,
      "Version": 6681,
      "Approxima": 6682,
      "interpret": 6683,
      "elucidate": 6684,
      "Problems": 6685,
      "mcquillan": 6686,
      "arithmetic": 6687,
      "Explicitly": 6688,
      "Checking": 6689,
      "parenthetical": 6690,
      "Hartshorne": 6691,
      "flip": 6692,
      "Bhatt": 6693,
      "Double": 6694,
      "Olsson": 6695,
      "'}),": 6696,
      "-}\\": 6697,
      "2m_2": 6698,
      "AA": 6699,
      "Colu": 6700,
      "DQCoh": 6701,
      "FM": 6702,
      "G_j": 6703,
      "I_x": 6704,
      "Kn": 6705,
      "K_x": 6706,
      "LG": 6707,
      "Pn": 6708,
      "RQ": 6709,
      "]})": 6710,
      "high": 6711,
      "lc": 6712,
      "nK": 6713,
      "pul": 6714,
      "qh": 6715,
      "qa_": 6716,
      "stit": 6717,
      "uative": 6718,
      "warn": 6719,
      "}}),": 6720,
      "infin": 6721,
      "redo": 6722,
      "revis": 6723,
      "beds": 6724,
      "Lefschetz": 6725,
      "finer": 6726,
      "ace": 6727,
      "versity": 6728,
      "assures": 6729,
      "formed": 6730,
      "impose": 6731,
      "})]": 6732,
      "})\\}": 6733,
      "spring": 6734,
      "times_z": 6735,
      "letting": 6736,
      "inese": 6737,
      "vartheta": 6738,
      "hook": 6739,
      "llu": 6740,
      "CoCh": 6741,
      "Cohstack": 6742,
      "taining": 6743,
      "neg": 6744,
      "''}(": 6745,
      "producing": 6746,
      "wedge_y": 6747,
      "i_B": 6748,
      "i_V": 6749,
      "beta_a": 6750,
      "U_l": 6751,
      "situm": 6752,
      "reducibility": 6753,
      "gamma_2": 6754,
      "S_3": 6755,
      "S_b": 6756,
      "S_x": 6757,
      "m_T": 6758,
      "m_Z": 6759,
      "x_V": 6760,
      "x_l": 6761,
      "f_1M": 6762,
      "M_t": 6763,
      "specific": 6764,
      "characterizing": 6765,
      "Delta_i": 6766,
      "``\\'": 6767,
      "weakass": 6768,
      "sup_": 6769,
      "V_u": 6770,
      "qcqs": 6771,
      "Final": 6772,
      "Commu": 6773,
      "F_G": 6774,
      "F_y": 6775,
      "sharp_x": 6776,
      "T_y": 6777,
      "Cartan": 6778,
      "p_a": 6779,
      "@{}[": 6780,
      "rigid": 6781,
      "}))}(\\": 6782,
      "sky": 6783,
      "rho_i": 6784,
      "y_c": 6785,
      "e_I": 6786,
      "rangle_n": 6787,
      "previously": 6788,
      "''))": 6789,
      "identifying": 6790,
      "compositum": 6791,
      "expressed": 6792,
      "success": 6793,
      "development": 6794,
      "University": 6795,
      "MS6": 6796,
      "Vers": 6797,
      "expect": 6798,
      "concept": 6799,
      "tautological": 6800,
      "Perhaps": 6801,
      "freeness": 6802,
      "eigenvalues": 6803,
      "sentence": 6804,
      "prescribed": 6805,
      "glued": 6806,
      "Valuative": 6807,
      "Chevalley": 6808,
      "Approximation": 6809,
      "Columbia": 6810,
      "hookrightarrow": 6811,
      "!^{\\": 6812,
      "'}^\\#": 6813,
      "1j": 6814,
      "1_x": 6815,
      "2e": 6816,
      "A7": 6817,
      "Bour": 6818,
      "Cof": 6819,
      "D_Y": 6820,
      "E_V": 6821,
      "Fall": 6822,
      "Gysin": 6823,
      "H_p": 6824,
      "I_3": 6825,
      "JR": 6826,
      "Lip": 6827,
      "Lichtenbaum": 6828,
      "Ry": 6829,
      "R_x": 6830,
      "TU": 6831,
      "](": 6832,
      "b_x": 6833,
      "b_r": 6834,
      "bloc": 6835,
      "clai": 6836,
      "dn": 6837,
      "dra": 6838,
      "east": 6839,
      "e_t": 6840,
      "fm": 6841,
      "front": 6842,
      "fancy": 6843,
      "mA": 6844,
      "ning": 6845,
      "pM": 6846,
      "p_x": 6847,
      "vative": 6848,
      "ware": 6849,
      "yah": 6850,
      "envir": 6851,
      "tiyah": 6852,
      "tes": 6853,
      "theories": 6854,
      "beled": 6855,
      "roles": 6856,
      "rotate": 6857,
      "Left": 6858,
      "promis": 6859,
      "ection": 6860,
      "weird": 6861,
      "Think": 6862,
      "endum": 6863,
      "during": 6864,
      "beginning": 6865,
      "labeled": 6866,
      "unded": 6867,
      "spar": 6868,
      "conser": 6869,
      "subcomplexes": 6870,
      "subpresheaf": 6871,
      "exposition": 6872,
      "letters": 6873,
      "Well": 6874,
      "linebundle": 6875,
      "funny": 6876,
      "f_x": 6877,
      "cance": 6878,
      "alpha_x": 6879,
      "xi_k": 6880,
      "Coherent": 6881,
      "Produ": 6882,
      "''[": 6883,
      "''})": 6884,
      "}']": 6885,
      "))^\\": 6886,
      "versing": 6887,
      "perfection": 6888,
      "tau_1": 6889,
      "a_p": 6890,
      "m_P": 6891,
      "valid": 6892,
      "sigma_j": 6893,
      "QCohstack": 6894,
      "L_f": 6895,
      "continued": 6896,
      "vanshing": 6897,
      "mainly": 6898,
      "throughout": 6899,
      "V_b": 6900,
      "efface": 6901,
      "coprod_i": 6902,
      "F_e": 6903,
      ")])": 6904,
      "finishing": 6905,
      "I_d": 6906,
      "pi_B": 6907,
      "paragraphs": 6908,
      "embeds": 6909,
      "cats": 6910,
      "chi_i": 6911,
      "sheafifications": 6912,
      "homeomorphic": 6913,
      "signific": 6914,
      "CH_i": 6915,
      "ranging": 6916,
      "Sheafi": 6917,
      "denoting": 6918,
      "complementary": 6919,
      "C_h": 6920,
      "possibility": 6921,
      "stratifications": 6922,
      "blich": 6923,
      "ordinary": 6924,
      "evaluated": 6925,
      "PolarizedCurves": 6926,
      "Universally": 6927,
      "besides": 6928,
      "currently": 6929,
      "carefully": 6930,
      "ahler": 6931,
      "preliminaries": 6932,
      "Glueing": 6933,
      "Restricting": 6934,
      "Otherwise": 6935,
      "obsolete": 6936,
      "detecting": 6937,
      "witnesses": 6938,
      "distance": 6939,
      "DoubleComp": 6940,
      "pulled": 6941,
      "successor": 6942,
      "Bourbaki": 6943,
      "Lipman": 6944,
      "claimed": 6945,
      "environ": 6946,
      "promised": 6947,
      "conservative": 6948,
      "'}.": 6949,
      "'}\\}": 6950,
      ")]$.": 6951,
      "+(\\": 6952,
      "0F": 6953,
      "2m_1": 6954,
      ":}": 6955,
      "A_k": 6956,
      "Free": 6957,
      "FAc": 6958,
      "Kap": 6959,
      "K_V": 6960,
      "Make": 6961,
      "N_f": 6962,
      "OD": 6963,
      "SS": 6964,
      "Where": 6965,
      "d_B": 6966,
      "fT": 6967,
      "hds": 6968,
      "h_A": 6969,
      "ild": 6970,
      "lan": 6971,
      "link": 6972,
      "nL": 6973,
      "nau": 6974,
      "pN": 6975,
      "pR": 6976,
      "r_g": 6977,
      "t_3": 6978,
      "uity": 6979,
      "u_3": 6980,
      "v_n": 6981,
      "vRel": 6982,
      "yz": 6983,
      "y_a": 6984,
      "zout": 6985,
      "mach": 6986,
      "insep": 6987,
      "resol": 6988,
      "restatement": 6989,
      "mathop": 6990,
      "mathrm": 6991,
      "ramov": 6992,
      "lov": 6993,
      "versa": 6994,
      "quint": 6995,
      ")$).": 6996,
      "overview": 6997,
      "comments": 6998,
      "}):": 6999,
      "until": 7000,
      "uncountable": 7001,
      "tability": 7002,
      "span": 7003,
      "coinci": 7004,
      "subquotient": 7005,
      "preparation": 7006,
      "int_Y": 7007,
      "interior": 7008,
      "$(*": 7009,
      "f_e": 7010,
      "f_l": 7011,
      "Inver": 7012,
      "Infinite": 7013,
      "bidegree": 7014,
      "')^!": 7015,
      "surd": 7016,
      "dams": 7017,
      "mu_i": 7018,
      "mu_p": 7019,
      "adjust": 7020,
      "irred": 7021,
      "oplus_": 7022,
      "stacky": 7023,
      "injectively": 7024,
      "))\\": 7025,
      "i_c": 7026,
      "Connec": 7027,
      "Conrad": 7028,
      "tiny": 7029,
      "tau_i": 7030,
      "worry": 7031,
      "\\}})$": 7032,
      "\\{-": 7033,
      "S_A": 7034,
      "S_p": 7035,
      "bigoplus_i": 7036,
      "x_A": 7037,
      "j_3": 7038,
      "QCohstack_": 7039,
      "reducedness": 7040,
      "Mori": 7041,
      "Z_K": 7042,
      "$[[": 7043,
      "Exercises": 7044,
      "V_y": 7045,
      "computations": 7046,
      "h_W": 7047,
      "Comput": 7048,
      "rrrd": 7049,
      "absurd": 7050,
      "T_e": 7051,
      "}^{-}(\\": 7052,
      "ought": 7053,
      "pi_F": 7054,
      "s_b": 7055,
      "introducing": 7056,
      "a_1x": 7057,
      "turned": 7058,
      "domination": 7059,
      "downstairs": 7060,
      "reductions": 7061,
      "addendum": 7062,
      "sively": 7063,
      "augmentations": 7064,
      "]][": 7065,
      "Bounded": 7066,
      "ision": 7067,
      "SGA1": 7068,
      "endomorphisms": 7069,
      "postcomposing": 7070,
      "dealt": 7071,
      "build": 7072,
      "Purity": 7073,
      "quadruples": 7074,
      "separately": 7075,
      "nearby": 7076,
      "Equality": 7077,
      "removing": 7078,
      "F_pI": 7079,
      "TrivRel": 7080,
      "olsson_": 7081,
      "bbd": 7082,
      "Keel": 7083,
      "Basic": 7084,
      "}^+(\\": 7085,
      "recurring": 7086,
      "nbhds": 7087,
      "Jacobi": 7088,
      "convergence": 7089,
      "Essential": 7090,
      "Modified": 7091,
      "Classi": 7092,
      "bifunctorially": 7093,
      "Rydh": 7094,
      "cancel": 7095,
      "naud": 7096,
      "Computing": 7097,
      "({}": 7098,
      ")+": 7099,
      "*.": 7100,
      "**}$": 7101,
      "+}$": 7102,
      "0_i": 7103,
      "19": 7104,
      "2m_3": 7105,
      "Bea": 7106,
      "D_n": 7107,
      "E_W": 7108,
      "F_A": 7109,
      "H_Z": 7110,
      "JS": 7111,
      "Kummer": 7112,
      "LM": 7113,
      "Lj": 7114,
      "Las": 7115,
      "N_R": 7116,
      "Pop": 7117,
      "RGamma": 7118,
      "R_k": 7119,
      "Rational": 7120,
      "Ty": 7121,
      "T_f": 7122,
      "])]": 7123,
      "aR": 7124,
      "aa": 7125,
      "bt": 7126,
      "b_p": 7127,
      "cf": 7128,
      "c_k": 7129,
      "d_3": 7130,
      "eD": 7131,
      "jus": 7132,
      "kummer": 7133,
      "l_i": 7134,
      "mB": 7135,
      "mori": 7136,
      "pat": 7137,
      "pj_": 7138,
      "p_A": 7139,
      "qj_": 7140,
      "rf": 7141,
      "wro": 7142,
      "w_2": 7143,
      "xh": 7144,
      "xed": 7145,
      "z_3": 7146,
      "}'',": 7147,
      "}=$``": 7148,
      "thought": 7149,
      "max_": 7150,
      "escu": 7151,
      "arc": 7152,
      "aren": 7153,
      "finds": 7154,
      "fineness": 7155,
      "lots": 7156,
      "ately": 7157,
      "duplic": 7158,
      "sten": 7159,
      "lazard": 7160,
      "icity": 7161,
      "covariant": 7162,
      "coskeleton": 7163,
      "subfunctors": 7164,
      "complet": 7165,
      "dier": 7166,
      "fibered": 7167,
      "letter": 7168,
      "}([": 7169,
      "pertaining": 7170,
      "$-$": 7171,
      "preimage": 7172,
      "boils": 7173,
      "f_y": 7174,
      "omorphisms": 7175,
      "^*)$.": 7176,
      "alpha_U": 7177,
      "Integ": 7178,
      "appendix": 7179,
      "X_f": 7180,
      "clar": 7181,
      "}^!": 7182,
      "based": 7183,
      "whereupon": 7184,
      "'}]": 7185,
      "'}})": 7186,
      "'}}^\\": 7187,
      "'}/(": 7188,
      "Prov": 7189,
      "pi_2": 7190,
      "wedge_Z": 7191,
      "}'}$.": 7192,
      "))[": 7193,
      "cord": 7194,
      "i_9": 7195,
      "i_F": 7196,
      "i_J": 7197,
      "i_m": 7198,
      "Lambda_1": 7199,
      "Gamma_Y": 7200,
      "delta_X": 7201,
      "U_y": 7202,
      "mixed": 7203,
      "Schreier": 7204,
      "posets": 7205,
      "a_E": 7206,
      "a_S": 7207,
      "a_e": 7208,
      "a_x": 7209,
      "x_b": 7210,
      "eta_X": 7211,
      "f_1f_2": 7212,
      "M_x": 7213,
      "particularly": 7214,
      "keel": 7215,
      "engthen": 7216,
      "effect": 7217,
      "including": 7218,
      "T_c": 7219,
      "p_B": 7220,
      "I_e": 7221,
      "dim_F": 7222,
      "dim_K": 7223,
      "pi_C": 7224,
      "Topological": 7225,
      "amalg_U": 7226,
      "^!)": 7227,
      "b_l": 7228,
      "[-\\": 7229,
      "summari": 7230,
      "c_g": 7231,
      "How": 7232,
      "germ": 7233,
      "strengthen": 7234,
      "plays": 7235,
      "P_e": 7236,
      "---": 7237,
      ")[[": 7238,
      "furthermore": 7239,
      "rho_V": 7240,
      "y_l": 7241,
      "fixes": 7242,
      "}})^{-": 7243,
      "contradict": 7244,
      "bijectively": 7245,
      "rangle_1": 7246,
      "surjecting": 7247,
      "}'')$": 7248,
      "r_N": 7249,
      "similarity": 7250,
      "likely": 7251,
      "resch": 7252,
      "singletons": 7253,
      "}}^+(\\": 7254,
      "Unramified": 7255,
      "nabla_": 7256,
      "expressions": 7257,
      "confusing": 7258,
      "great": 7259,
      "parametriz": 7260,
      "realize": 7261,
      "behaves": 7262,
      "uville": 7263,
      "|(|\\": 7264,
      "Intersection": 7265,
      "romannumeral2": 7266,
      "Raynaud": 7267,
      "recursion": 7268,
      "Orlov": 7269,
      "avoids": 7270,
      "scalars": 7271,
      "Henselian": 7272,
      "Cycle": 7273,
      "Characterizing": 7274,
      "mathematical": 7275,
      "infinity": 7276,
      "Versal": 7277,
      "quintuple": 7278,
      "Connected": 7279,
      "Beauville": 7280,
      "Laszlo": 7281,
      "Popescu": 7282,
      "wrote": 7283,
      "Integral": 7284,
      "$*": 7285,
      "']$.": 7286,
      ")!}": 7287,
      "*[\\": 7288,
      "+}": 7289,
      ".}\\": 7290,
      "0f_": 7291,
      "1_j": 7292,
      "2a": 7293,
      "76": 7294,
      "Au": 7295,
      "BA": 7296,
      "Bes": 7297,
      "CA": 7298,
      "Eq": 7299,
      "F_x": 7300,
      "F_m": 7301,
      "FQis": 7302,
      "G_0": 7303,
      "J_Z": 7304,
      "J_m": 7305,
      "LMS2": 7306,
      "None": 7307,
      "N_K": 7308,
      "Oft": 7309,
      "RH": 7310,
      "Ra": 7311,
      "Rig": 7312,
      "Van": 7313,
      "Y_U": 7314,
      "]).": 7315,
      "apo": 7316,
      "eB": 7317,
      "epp": 7318,
      "ields": 7319,
      "j_k": 7320,
      "jab": 7321,
      "kK": 7322,
      "mor": 7323,
      "nS": 7324,
      "n_m": 7325,
      "o_": 7326,
      "ute": 7327,
      "war": 7328,
      "yields": 7329,
      "{\"": 7330,
      "{>": 7331,
      "rever": 7332,
      "leg": 7333,
      "token": 7334,
      "attain": 7335,
      "sime": 7336,
      "chs": 7337,
      "chi_p": 7338,
      "loosely": 7339,
      "entry": 7340,
      "ects": 7341,
      "}$''": 7342,
      "rid": 7343,
      "consequently": 7344,
      "subrings": 7345,
      "subvector": 7346,
      "times_x": 7347,
      "^{(\\": 7348,
      "exclu": 7349,
      "textbf": 7350,
      "Spring": 7351,
      "parse": 7352,
      "ctly": 7353,
      "ored": 7354,
      "phi_2": 7355,
      "Associ": 7356,
      "Assuming": 7357,
      "longleftrightarrow": 7358,
      "separates": 7359,
      "}}]": 7360,
      "titude": 7361,
      "irreducibility": 7362,
      "respects": 7363,
      "'''/": 7364,
      "}'}}": 7365,
      "inverted": 7366,
      "redComp": 7367,
      ")))$.": 7368,
      "corollary": 7369,
      "i_b": 7370,
      "nonflat": 7371,
      "nonmaximal": 7372,
      "Lambda_2": 7373,
      "Conclu": 7374,
      "Contra": 7375,
      "lambda_X": 7376,
      "charts": 7377,
      "fails": 7378,
      ")}}$": 7379,
      "commutation": 7380,
      "a_4": 7381,
      "a_K": 7382,
      "D_A": 7383,
      "x_N": 7384,
      "eta_Y": 7385,
      "ourselves": 7386,
      "traces": 7387,
      "M_b": 7388,
      "R_s": 7389,
      "Y_W": 7390,
      "Y_r": 7391,
      "L_3": 7392,
      "Z_T": 7393,
      "Z_u": 7394,
      "continuity": 7395,
      "B_N": 7396,
      "Exam": 7397,
      "miniversal": 7398,
      "abhyankar": 7399,
      "}^{\\#": 7400,
      "W_b": 7401,
      "includes": 7402,
      "platitude": 7403,
      "p_I": 7404,
      "s_a": 7405,
      "'}))": 7406,
      "characters": 7407,
      "}]/\\": 7408,
      "unctors": 7409,
      "bergh": 7410,
      "ampleness": 7411,
      "Without": 7412,
      "lim_F": 7413,
      "Hilb": 7414,
      "}^\\#(": 7415,
      "address": 7416,
      "selfmap": 7417,
      "forgetting": 7418,
      "symbolic": 7419,
      "translated": 7420,
      "fewer": 7421,
      "dvrs": 7422,
      "punctual": 7423,
      "Everything": 7424,
      "calculations": 7425,
      "reformulated": 7426,
      "illu": 7427,
      "shifted": 7428,
      "dealing": 7429,
      "decomposes": 7430,
      "MS5": 7431,
      "licing": 7432,
      "motivates": 7433,
      "effectivity": 7434,
      "harm": 7435,
      "constraints": 7436,
      "\\{*\\}$": 7437,
      "romannumeral1": 7438,
      "sixth": 7439,
      "publish": 7440,
      "Constructible": 7441,
      "avoided": 7442,
      "kollar": 7443,
      "amount": 7444,
      "factoring": 7445,
      "quantity": 7446,
      "Obviously": 7447,
      "IrredComp": 7448,
      "italic": 7449,
      "distribute": 7450,
      "lansky": 7451,
      "Besides": 7452,
      "Often": 7453,
      "simeq": 7454,
      "**}": 7455,
      ",\\\\": 7456,
      ",*}(": 7457,
      "00": 7458,
      "2c_2": 7459,
      "A2": 7460,
      "A4": 7461,
      "Abelian": 7462,
      "C_k": 7463,
      "Di": 7464,
      "Ddga": 7465,
      "E_U": 7466,
      "E_a": 7467,
      "G_S": 7468,
      "HC": 7469,
      "IK": 7470,
      "Kun": 7471,
      "P_U": 7472,
      "Ru_": 7473,
      "SG": 7474,
      "Sing": 7475,
      "Stri": 7476,
      "VI": 7477,
      "War": 7478,
      "]^*\\": 7479,
      "]}]": 7480,
      "adams": 7481,
      "dots": 7482,
      "dh_": 7483,
      "eA": 7484,
      "e_d": 7485,
      "fB": 7486,
      "gp": 7487,
      "grc": 7488,
      "gue": 7489,
      "ilating": 7490,
      "ling": 7491,
      "nP": 7492,
      "nj": 7493,
      "null": 7494,
      "pb": 7495,
      "pism": 7496,
      "q_3": 7497,
      "stic": 7498,
      "sored": 7499,
      "ues": 7500,
      "ucl": 7501,
      "v_r": 7502,
      "{|\\": 7503,
      "}+": 7504,
      "ising": 7505,
      "eron": 7506,
      "templ": 7507,
      "seded": 7508,
      "segre": 7509,
      "roun": 7510,
      "sight": 7511,
      "sically": 7512,
      "cept": 7513,
      "ric": 7514,
      "force": 7515,
      "comm": 7516,
      "notations": 7517,
      "stating": 7518,
      "})).": 7519,
      "})),": 7520,
      "})})}(": 7521,
      "contro": 7522,
      "contempl": 7523,
      "bramov": 7524,
      "times_C": 7525,
      "times_L": 7526,
      "f_W": 7527,
      "alpha_d": 7528,
      "biregular": 7529,
      "')}$": 7530,
      "}^!$": 7531,
      "idean": 7532,
      "separability": 7533,
      "pping": 7534,
      "}}^{-": 7535,
      "}}}^\\": 7536,
      "'}})$": 7537,
      "''\\": 7538,
      "'')$,": 7539,
      "Shr": 7540,
      "somewhere": 7541,
      "forming": 7542,
      "gamma_d": 7543,
      "A_K": 7544,
      "A_Z": 7545,
      "}^{[": 7546,
      "S_a": 7547,
      "S_t": 7548,
      "m_I": 7549,
      "m_u": 7550,
      "m_RS": 7551,
      "g_C": 7552,
      "generalizing": 7553,
      "tening": 7554,
      "tensored": 7555,
      "manif": 7556,
      "x_iy_i": 7557,
      "epsilon_S": 7558,
      "Mor_X": 7559,
      "Z_e": 7560,
      "mult": 7561,
      "Ext_R": 7562,
      "triviality": 7563,
      "h_R": 7564,
      "Theorems": 7565,
      "1_F": 7566,
      "worked": 7567,
      "{-}\\": 7568,
      "F_W": 7569,
      "annihilating": 7570,
      "Abhyankar": 7571,
      "hyperplane": 7572,
      "s_h": 7573,
      "normalizations": 7574,
      "'})(": 7575,
      "'})^{-": 7576,
      "gersten": 7577,
      "rho_M": 7578,
      "E_y": 7579,
      "rydh_": 7580,
      "evid": 7581,
      "classify": 7582,
      "truncate": 7583,
      "}^*)": 7584,
      "Flattening": 7585,
      "milnor": 7586,
      "inery": 7587,
      "0_I": 7588,
      "proceeds": 7589,
      "studying": 7590,
      "involve": 7591,
      "transitively": 7592,
      "illen": 7593,
      "2g_X": 7594,
      "Motiv": 7595,
      "Whenever": 7596,
      "Presheaves": 7597,
      "Verification": 7598,
      "lieblich": 7599,
      "denominator": 7600,
      "named": 7601,
      "(*)": 7602,
      "Entitled": 7603,
      "Translation": 7604,
      "combinatorial": 7605,
      "decreases": 7606,
      "pleasant": 7607,
      "increases": 7608,
      "----------------": 7609,
      "Openness": 7610,
      "kolmogorov": 7611,
      "Trivially": 7612,
      "purposes": 7613,
      "Subsection": 7614,
      "desingularization": 7615,
      "achieve": 7616,
      "superseded": 7617,
      "Commuta": 7618,
      "block": 7619,
      "draw": 7620,
      "Products": 7621,
      "Sheafification": 7622,
      "Whereupon": 7623,
      "machinery": 7624,
      "Classification": 7625,
      "duplicate": 7626,
      "Provide": 7627,
      "parametrized": 7628,
      "Vanishing": 7629,
      "illustra": 7630,
      "harmless": 7631,
      "italicized": 7632,
      "uclidean": 7633,
      "control": 7634,
      "bramovich": 7635,
      "!)^": 7636,
      "'])": 7637,
      "({": 7638,
      "-)$,": 7639,
      "//": 7640,
      "0_1": 7641,
      "0_A": 7642,
      "1pc": 7643,
      "2m_4": 7644,
      "Aus": 7645,
      "Akizuki": 7646,
      "BC": 7647,
      "Bu": 7648,
      "C_Y": 7649,
      "D_X": 7650,
      "Dually": 7651,
      "Email": 7652,
      "Functors": 7653,
      "Homo": 7654,
      "I_k": 7655,
      "J_B": 7656,
      "Lif": 7657,
      "Later": 7658,
      "Mil": 7659,
      "P_3": 7660,
      "P_d": 7661,
      "Ri": 7662,
      "Rx": 7663,
      "SV": 7664,
      "Smal": 7665,
      "Still": 7666,
      "TG": 7667,
      "W_X": 7668,
      "Why": 7669,
      "W_T": 7670,
      "_J": 7671,
      "a_U": 7672,
      "aila": 7673,
      "cn": 7674,
      "ctor": 7675,
      "ef": 7676,
      "e_Z": 7677,
      "ider": 7678,
      "kM": 7679,
      "lated": 7680,
      "men": 7681,
      "mic": 7682,
      "nM_": 7683,
      "n_V": 7684,
      "pH": 7685,
      "q_r": 7686,
      "s_k": 7687,
      "tral": 7688,
      "vor": 7689,
      "v_Z": 7690,
      "ville": 7691,
      "wish": 7692,
      "xS": 7693,
      "xb": 7694,
      "|}(\\": 7695,
      "redient": 7696,
      "reversing": 7697,
      "oftw": 7698,
      "theless": 7699,
      "beh": 7700,
      "silon": 7701,
      "simul": 7702,
      "chy": 7703,
      "ph_V": 7704,
      "ingredient": 7705,
      "acs": 7706,
      "}$?": 7707,
      ")$:": 7708,
      "cep": 7709,
      "ascend": 7710,
      "imposed": 7711,
      "imposing": 7712,
      "stress": 7713,
      "})\\\\": 7714,
      "}))$,": 7715,
      "ope": 7716,
      "preorder": 7717,
      "upsilon": 7718,
      "kik": 7719,
      "$({}'": 7720,
      "}$.)": 7721,
      "Spectral": 7722,
      "f_b": 7723,
      "categorically": 7724,
      "presents": 7725,
      "X_L": 7726,
      "X_e": 7727,
      "dold": 7728,
      "')})": 7729,
      "design": 7730,
      "}}}$": 7731,
      "}}|$": 7732,
      "pointing": 7733,
      "'}^*": 7734,
      "remarkable": 7735,
      "pi_k": 7736,
      "}'},": 7737,
      "psi_Y": 7738,
      "La_X": 7739,
      "Lazard": 7740,
      "i_l": 7741,
      "nonunit": 7742,
      "$(\\{": 7743,
      "}|}": 7744,
      "tau_2": 7745,
      "nolimits_r": 7746,
      "\\}/\\": 7747,
      "m_v": 7748,
      "g_d": 7749,
      "eta_0": 7750,
      "sigma_2": 7751,
      "j_m": 7752,
      "Omega_D": 7753,
      "Separ": 7754,
      "Delta_g": 7755,
      "_pg": 7756,
      "epsilon_0": 7757,
      "``{\\": 7758,
      "continuing": 7759,
      "liff": 7760,
      "pushdown": 7761,
      "tensors": 7762,
      "B_K": 7763,
      "B_a": 7764,
      "B_e": 7765,
      "V_a": 7766,
      "1_C": 7767,
      "])^{\\": 7768,
      "auts": 7769,
      "f_rg_r": 7770,
      "}')^{-": 7771,
      "}}((": 7772,
      "characteristics": 7773,
      "ssmann": 7774,
      "}]]": 7775,
      "lists": 7776,
      "arbitrarily": 7777,
      "chi_j": 7778,
      "bertini": 7779,
      "eously": 7780,
      "documents": 7781,
      "2w_i": 7782,
      "Fib": 7783,
      "guess": 7784,
      "baer": 7785,
      "basically": 7786,
      "amil": 7787,
      "i_ji_": 7788,
      "stage": 7789,
      "guaranteed": 7790,
      "avramov": 7791,
      "availa": 7792,
      "calculus": 7793,
      "curi": 7794,
      "${}''": 7795,
      "Universal": 7796,
      "deals": 7797,
      "Surjective": 7798,
      "borrow": 7799,
      "Smoothness": 7800,
      "Verdier": 7801,
      "encouraged": 7802,
      "Comparison": 7803,
      "Generic": 7804,
      "Goal": 7805,
      "scripts": 7806,
      "F_pN": 7807,
      "trivializations": 7808,
      "Translating": 7809,
      "Keep": 7810,
      "taneously": 7811,
      "ultimate": 7812,
      "typically": 7813,
      "history": 7814,
      "Jacobian": 7815,
      "amounts": 7816,
      "ambiguity": 7817,
      "Normalization": 7818,
      "lcm": 7819,
      "Kaplansky": 7820,
      "Infinitesimal": 7821,
      "apologies": 7822,
      "reversed": 7823,
      "Shrinking": 7824,
      "manifold": 7825,
      "Motivated": 7826,
      "Auslander": 7827,
      "Small": 7828,
      "oftware": 7829,
      "simultaneously": 7830,
      "ssmannian": 7831,
      "available": 7832,
      "'}^{\\": 7833,
      "(.": 7834,
      ")|$": 7835,
      ")^*(": 7836,
      ")),\\": 7837,
      "-)}": 7838,
      "0_2": 7839,
      "32": 7840,
      "A5": 7841,
      "BB": 7842,
      "BG": 7843,
      "Bi": 7844,
      "Bad": 7845,
      "Certain": 7846,
      "Deno": 7847,
      "E6": 7848,
      "GN": 7849,
      "Ger": 7850,
      "G_m": 7851,
      "H3": 7852,
      "His": 7853,
      "L_j": 7854,
      "LMS3": 7855,
      "P_T": 7856,
      "Page": 7857,
      "QP": 7858,
      "RMS2": 7859,
      "RMS3": 7860,
      "TH": 7861,
      "Tit": 7862,
      "XY": 7863,
      "[{[": 7864,
      "\\}))": 7865,
      "])^": 7866,
      "][[": 7867,
      "]])$": 7868,
      "bM": 7869,
      "b_k": 7870,
      "cB": 7871,
      "dated": 7872,
      "e_V": 7873,
      "fect": 7874,
      "ire": 7875,
      "kick": 7876,
      "kbar": 7877,
      "krull": 7878,
      "mn": 7879,
      "pm": 7880,
      "pus": 7881,
      "qg": 7882,
      "rk": 7883,
      "rs": 7884,
      "rand": 7885,
      "sto": 7886,
      "spo": 7887,
      "s_m": 7888,
      "t_m": 7889,
      "xm": 7890,
      "yes": 7891,
      "yond": 7892,
      "z_m": 7893,
      "}}^{\\": 7894,
      "}!}\\": 7895,
      "mas": 7896,
      "mably": 7897,
      "alten": 7898,
      "lex": 7899,
      "erase": 7900,
      "tog": 7901,
      "beyond": 7902,
      "rot": 7903,
      "sumably": 7904,
      "lous": 7905,
      "ending": 7906,
      "Letting": 7907,
      "pol": 7908,
      "fort": 7909,
      "ult": 7910,
      "lations": 7911,
      "iter": 7912,
      "moot": 7913,
      "unwind": 7914,
      "sprea": 7915,
      "copresheaves": 7916,
      "cocycles": 7917,
      "cocone": 7918,
      "conic": 7919,
      "contrary": 7920,
      "jects": 7921,
      "tively": 7922,
      "exhi": 7923,
      "file": 7924,
      "affineness": 7925,
      "prevent": 7926,
      "bullet_i": 7927,
      "Weier": 7928,
      "$({}''": 7929,
      "can_": 7930,
      "gabriel": 7931,
      "}(\\{\\": 7932,
      "X_R": 7933,
      "varphi_3": 7934,
      "dout": 7935,
      "lliptic": 7936,
      "')|": 7937,
      "adv": 7938,
      "}}{\\": 7939,
      "}}})$.": 7940,
      "zeros": 7941,
      "anywhere": 7942,
      "anyway": 7943,
      "neider": 7944,
      "'').": 7945,
      "Form": 7946,
      "}'/(\\": 7947,
      "Hom_K": 7948,
      "lambda_Y": 7949,
      "U_b": 7950,
      "charpoly": 7951,
      "pr_Y": 7952,
      "fault": 7953,
      "Objects": 7954,
      ")}{\\": 7955,
      "gamma_k": 7956,
      "\\}}\\{": 7957,
      "A_t": 7958,
      "a_6": 7959,
      "D_s": 7960,
      "m_w": 7961,
      "inverses": 7962,
      "eta_2": 7963,
      "clash": 7964,
      "nu_X": 7965,
      "R_u": 7966,
      "interval": 7967,
      "constructs": 7968,
      "live": 7969,
      "epsilon_i": 7970,
      "epsilon_p": 7971,
      "transpose": 7972,
      "L_D": 7973,
      "Z_y": 7974,
      "K_N": 7975,
      "K_d": 7976,
      "h_3": 7977,
      "h_a": 7978,
      "h_m": 7979,
      "Star": 7980,
      "rrtwocell": 7981,
      "F_E": 7982,
      "numbering": 7983,
      "W_u": 7984,
      "T_B": 7985,
      "T_K": 7986,
      "T_t": 7987,
      "Cartesian": 7988,
      "H_W": 7989,
      "p_s": 7990,
      "dependence": 7991,
      "counting": 7992,
      "colla": 7993,
      "Group": 7994,
      "}],": 7995,
      "sheafified": 7996,
      "')^*[": 7997,
      "')^*(\\": 7998,
      "simpler": 7999,
      "dominated": 8000,
      "projectors": 8001,
      "strass": 8002,
      "'}(-": 8003,
      "Delta_F": 8004,
      "^\\#}": 8005,
      "centers": 8006,
      "analogues": 8007,
      "y_e": 8008,
      "putting": 8009,
      "Completion": 8010,
      "cutoff": 8011,
      "referred": 8012,
      "xi_q": 8013,
      "Weakly": 8014,
      "annihilators": 8015,
      "contractibles": 8016,
      "mu_e": 8017,
      "Rest": 8018,
      "Filtered": 8019,
      "refinements": 8020,
      "Correspon": 8021,
      "Grauer": 8022,
      "amalg_A": 8023,
      "2016": 8024,
      "MatCA": 8025,
      "'\\}}$.": 8026,
      "100": 8027,
      "dropped": 8028,
      "methods": 8029,
      "}{\\#": 8030,
      "copyright": 8031,
      "fibrations": 8032,
      "Riemen": 8033,
      "bijectivity": 8034,
      "bookkeeping": 8035,
      "Translated": 8036,
      "schneider": 8037,
      "Statements": 8038,
      "Perfect": 8039,
      "difficulty": 8040,
      "didin": 8041,
      "Geometric": 8042,
      "affect": 8043,
      "topics": 8044,
      "Quotients": 8045,
      "quickly": 8046,
      "ignore": 8047,
      "Effective": 8048,
      "beauville": 8049,
      "simplifies": 8050,
      "techniques": 8051,
      "Leftarrow": 8052,
      "sparent": 8053,
      "environment": 8054,
      "Invertible": 8055,
      "])]}": 8056,
      "summarize": 8057,
      "SGE": 8058,
      "Strictly": 8059,
      "contemplate": 8060,
      "BBD": 8061,
      "Denoting": 8062,
      "Title": 8063,
      "kicks": 8064,
      "altenstein": 8065,
      "spreadout": 8066,
      "Weierstrass": 8067,
      "Grauert": 8068,
      "Riemenschneider": 8069,
      "&=": 8070,
      "']$,": 8071,
      "'}^\\#$": 8072,
      "((-": 8073,
      "*).": 8074,
      "+\\": 8075,
      "-,": 8076,
      "-$\\": 8077,
      "-{(": 8078,
      "1_T": 8079,
      "2p": 8080,
      "3m": 8081,
      "3ex": 8082,
      "44": 8083,
      "8g": 8084,
      "://": 8085,
      "<=": 8086,
      "@(": 8087,
      "A9": 8088,
      "AR": 8089,
      "Abramovich": 8090,
      "BS": 8091,
      "B_k": 8092,
      "Ele": 8093,
      "Euclidean": 8094,
      "Frac": 8095,
      "Ferr": 8096,
      "I_f": 8097,
      "Jo": 8098,
      "Knu": 8099,
      "Kron": 8100,
      "N_g": 8101,
      "O_i": 8102,
      "Oka": 8103,
      "PGL": 8104,
      "Todd": 8105,
      "\\!": 8106,
      "\\}\\": 8107,
      "\\}))$": 8108,
      "_su": 8109,
      "atiyah": 8110,
      "bm": 8111,
      "b_U": 8112,
      "burn": 8113,
      "dll": 8114,
      "eval": 8115,
      "ezout": 8116,
      "h2": 8117,
      "hg": 8118,
      "han": 8119,
      "hope": 8120,
      "imma": 8121,
      "ku": 8122,
      "lish": 8123,
      "lichtenbaum": 8124,
      "osity": 8125,
      "pI": 8126,
      "pq": 8127,
      "pack": 8128,
      "pere": 8129,
      "port": 8130,
      "p_Z": 8131,
      "qS_": 8132,
      "q_p": 8133,
      "r_d": 8134,
      "stop": 8135,
      "sdga": 8136,
      "tps": 8137,
      "ube": 8138,
      "vt_2": 8139,
      "infa": 8140,
      "ensure": 8141,
      "reversal": 8142,
      "replaces": 8143,
      "mathbb": 8144,
      "ann": 8145,
      "orate": 8146,
      "artic": 8147,
      "enty": 8148,
      "deligne": 8149,
      "default": 8150,
      "}$},": 8151,
      "merely": 8152,
      ")$?": 8153,
      "nodes": 8154,
      "string": 8155,
      "colocalization": 8156,
      "coboundary": 8157,
      "subbase": 8158,
      "times_s": 8159,
      "usfield": 8160,
      "equally": 8161,
      "bousfield": 8162,
      "f_u": 8163,
      "derburn": 8164,
      "X_Y": 8165,
      "X_u": 8166,
      "llld": 8167,
      "'))}": 8168,
      "surroun": 8169,
      "plenty": 8170,
      "xi_U": 8171,
      "xili": 8172,
      "xi_s": 8173,
      "ideas": 8174,
      "admit": 8175,
      "kappa_j": 8176,
      "Cohomo": 8177,
      "ilin": 8178,
      "'''}": 8179,
      "pi_A": 8180,
      "}'})$.": 8181,
      "equational": 8182,
      "))}$": 8183,
      "))/\\": 8184,
      "colim_j": 8185,
      "i_M": 8186,
      "nonunique": 8187,
      "Gabriel": 8188,
      "understo": 8189,
      "$(\\{\\": 8190,
      "Hom_P": 8191,
      "}/{\\": 8192,
      "obtains": 8193,
      "prod_n": 8194,
      "prod_m": 8195,
      "A_y": 8196,
      "ecker": 8197,
      "D_B": 8198,
      "ameli": 8199,
      "m_t": 8200,
      "omega_U": 8201,
      "geomred": 8202,
      "x_B": 8203,
      "completes": 8204,
      "j_q": 8205,
      "j_t": 8206,
      "M_K": 8207,
      "M_s": 8208,
      "antly": 8209,
      "intermediate": 8210,
      "epsilon_1": 8211,
      "epsilon_2": 8212,
      "goma": 8213,
      "Z_E": 8214,
      "liftability": 8215,
      "declar": 8216,
      "V_s": 8217,
      "hypere": 8218,
      "K_C": 8219,
      "Finiteness": 8220,
      "Mor_T": 8221,
      "squared": 8222,
      "n_M": 8223,
      "W_d": 8224,
      "Argue": 8225,
      "Recalling": 8226,
      "])^\\": 8227,
      "I_K": 8228,
      "dim_y": 8229,
      "@{<=": 8230,
      "ArtinI": 8231,
      "ArtinVersal": 8232,
      "readers": 8233,
      "'})^*\\": 8234,
      "b_t": 8235,
      "}])$": 8236,
      "c_M": 8237,
      "homeo": 8238,
      "^\\#$,": 8239,
      "m_AC": 8240,
      "rho_a": 8241,
      "CH_m": 8242,
      "2w_j": 8243,
      "asserts": 8244,
      "combinations": 8245,
      ")/\\!\\": 8246,
      "}^\\#)": 8247,
      "}'}},": 8248,
      "modified": 8249,
      "reflection": 8250,
      "Serre_": 8251,
      "additionally": 8252,
      "ddl": 8253,
      "Localizing": 8254,
      "converge": 8255,
      "matlis": 8256,
      "inherent": 8257,
      "feel": 8258,
      "2011": 8259,
      "2017": 8260,
      "Doing": 8261,
      "witz": 8262,
      "relationships": 8263,
      "best": 8264,
      "gradings": 8265,
      "Prelimin": 8266,
      "speak": 8267,
      "mumford": 8268,
      "Relatively": 8269,
      "Kollar": 8270,
      "interpreted": 8271,
      "interpretation": 8272,
      "Ringed": 8273,
      "Key": 8274,
      "corners": 8275,
      "decreased": 8276,
      "author": 8277,
      "lfloor": 8278,
      "appears": 8279,
      "consistently": 8280,
      "Restriction": 8281,
      "behaved": 8282,
      "belongs": 8283,
      "factored": 8284,
      ")=$``$\\": 8285,
      "https": 8286,
      "coincides": 8287,
      "Boundedness": 8288,
      "rfloor": 8289,
      "768g": 8290,
      "attains": 8291,
      "Conclude": 8292,
      "publisher": 8293,
      "stick": 8294,
      "Lifting": 8295,
      "Milnor": 8296,
      "Certainly": 8297,
      "spots": 8298,
      "advise": 8299,
      "Corresponding": 8300,
      "Ferrand": 8301,
      "Kronecker": 8302,
      "immaterial": 8303,
      "surrounding": 8304,
      "xiliary": 8305,
      "understood": 8306,
      "declaring": 8307,
      "hyperelliptic": 8308,
      "@{<=>}[": 8309,
      "!}^{": 8310,
      ")'$": 8311,
      ")\\\\": 8312,
      ")}).": 8313,
      ")}[": 8314,
      "*),": 8315,
      "*)]": 8316,
      "+,": 8317,
      "-(": 8318,
      ".},": 8319,
      "0_n": 8320,
      "1_n": 8321,
      "1g_": 8322,
      "2y": 8323,
      "2category": 8324,
      "2_s": 8325,
      "33": 8326,
      "A3": 8327,
      "A8": 8328,
      "Back": 8329,
      "C_U": 8330,
      "D5": 8331,
      "DD_": 8332,
      "Dav": 8333,
      "E7": 8334,
      "EG": 8335,
      "Fo": 8336,
      "F_r": 8337,
      "FA_d": 8338,
      "Hur": 8339,
      "Id": 8340,
      "IA_": 8341,
      "JC": 8342,
      "Jong": 8343,
      "K3": 8344,
      "Ka": 8345,
      "Kle": 8346,
      "Kresch": 8347,
      "Mon": 8348,
      "Nm": 8349,
      "NEG": 8350,
      "O_": 8351,
      "PT": 8352,
      "P_A": 8353,
      "Tru": 8354,
      "T_V": 8355,
      "V_X": 8356,
      "Xs": 8357,
      "\\},\\": 8358,
      "]\\\\": 8359,
      "]}^\\": 8360,
      "]}}": 8361,
      "])}": 8362,
      "][\\": 8363,
      "aM": 8364,
      "bQ": 8365,
      "bxy": 8366,
      "brand": 8367,
      "ctory": 8368,
      "cision": 8369,
      "dB": 8370,
      "g_U": 8371,
      "kin": 8372,
      "k_s": 8373,
      "nn": 8374,
      "net": 8375,
      "nR_": 8376,
      "q_k": 8377,
      "q_m": 8378,
      "q_s": 8379,
      "qS_g": 8380,
      "r_Y": 8381,
      "sw": 8382,
      "sand": 8383,
      "ux": 8384,
      "uly": 8385,
      "visi": 8386,
      "vdB": 8387,
      "xI": 8388,
      "zig": 8389,
      "zag": 8390,
      "{<": 8391,
      "{*}": 8392,
      "}$\\": 8393,
      "}->}[": 8394,
      "encounter": 8395,
      "rek": 8396,
      "relying": 8397,
      "restate": 8398,
      "res_": 8399,
      "relating": 8400,
      "tie": 8401,
      "lem": 8402,
      "learn": 8403,
      "eristic": 8404,
      "erbrand": 8405,
      "toward": 8406,
      "thelot": 8407,
      "orpism": 8408,
      "arise": 8409,
      "sim_R": 8410,
      "acc": 8411,
      "}$),": 8412,
      "meant": 8413,
      "Thinking": 8414,
      "tson": 8415,
      "ason": 8416,
      "ductor": 8417,
      "forced": 8418,
      "impure": 8419,
      "comment": 8420,
      "ults": 8421,
      "mop": 8422,
      "});": 8423,
      "})))": 8424,
      "})',": 8425,
      "unately": 8426,
      "colon": 8427,
      "coimage": 8428,
      "codirected": 8429,
      "coprojection": 8430,
      "conn": 8431,
      "constit": 8432,
      "conductor": 8433,
      "shor": 8434,
      "}.},": 8435,
      "equich": 8436,
      "'$}": 8437,
      "'$),": 8438,
      "lim_m": 8439,
      "lattices": 8440,
      ")$.}.": 8441,
      "alpha_p": 8442,
      "Ind": 8443,
      "Not": 8444,
      "X_c": 8445,
      "})$;": 8446,
      "})$}": 8447,
      "llll": 8448,
      "}\\!\\": 8449,
      "')}^\\": 8450,
      "xi_V": 8451,
      "xi_t": 8452,
      "Coun": 8453,
      "tern": 8454,
      "iman": 8455,
      "zerodivisors": 8456,
      "'}}$.": 8457,
      "'}^*)": 8458,
      "'']": 8459,
      "psi_3": 8460,
      "))(": 8461,
      "))^{-": 8462,
      "))}(\\": 8463,
      "i_4": 8464,
      "noncomplete": 8465,
      "nontorsion": 8466,
      "deg_T": 8467,
      "lambda_r": 8468,
      "U_B": 8469,
      "^{\\#": 8470,
      "quadric": 8471,
      "primed": 8472,
      ")}/\\": 8473,
      "gamma_j": 8474,
      "gamma_U": 8475,
      "gamma_Z": 8476,
      "differs": 8477,
      "m_6": 8478,
      "g_x": 8479,
      "sigma_B": 8480,
      "M_a": 8481,
      "nu_1": 8482,
      "Separation": 8483,
      "Delta_X": 8484,
      "R_p": 8485,
      "transversal": 8486,
      "translating": 8487,
      "bigcup_i": 8488,
      "weaken": 8489,
      "B_t": 8490,
      "stands": 8491,
      "supposed": 8492,
      "V_c": 8493,
      "V_w": 8494,
      "claims": 8495,
      "starts": 8496,
      "rrru": 8497,
      "rrdd": 8498,
      "ablish": 8499,
      "_mU": 8500,
      "n_B": 8501,
      "n_y": 8502,
      "depth2": 8503,
      "])[": 8504,
      "Only": 8505,
      "auxiliary": 8506,
      "ledge": 8507,
      "Descri": 8508,
      "outs": 8509,
      "p_F": 8510,
      "counits": 8511,
      "^!(-)": 8512,
      "@{^{(": 8513,
      "}))}(": 8514,
      "g_1g_2": 8515,
      "decomposing": 8516,
      "m_iw_i": 8517,
      "chi_n": 8518,
      "^\\#(": 8519,
      "downward": 8520,
      "appropri": 8521,
      "diction": 8522,
      "Ofer": 8523,
      "}})}": 8524,
      "'|)$": 8525,
      "'|)$.": 8526,
      "Chinese": 8527,
      "'})$-": 8528,
      "gamma_E": 8529,
      "}''/": 8530,
      "viewing": 8531,
      "cardinalities": 8532,
      "sum_l": 8533,
      "w_iw_k": 8534,
      "w_iw_l": 8535,
      "m_RN": 8536,
      "Beware": 8537,
      "u_b": 8538,
      "z_e": 8539,
      "j_1j_2": 8540,
      "_Gt": 8541,
      "cochains": 8542,
      "infinitesimally": 8543,
      "robenii": 8544,
      "Results": 8545,
      "expressing": 8546,
      "calculate": 8547,
      "cusp": 8548,
      "2018": 8549,
      "'\\}}$": 8550,
      "weightings": 8551,
      "${}^": 8552,
      "shifting": 8553,
      "avoiding": 8554,
      ")^\\#$.": 8555,
      "isomorpism": 8556,
      "Precise": 8557,
      "Preserve": 8558,
      "Push": 8559,
      "Transparent": 8560,
      "north": 8561,
      "cross": 8562,
      "carefuly": 8563,
      "Berthelot": 8564,
      "harder": 8565,
      "hartog": 8566,
      "})^\\#$.": 8567,
      "F_pP": 8568,
      "visual": 8569,
      "Sketch": 8570,
      "wonder": 8571,
      "falls": 8572,
      "penultimate": 8573,
      "potentially": 8574,
      "Baer": 8575,
      "integrate": 8576,
      "AffineCris": 8577,
      "Assertions": 8578,
      "ambient": 8579,
      "aracteristic": 8580,
      "contributed": 8581,
      "w_hw_i": 8582,
      "w_hw_l": 8583,
      "affling": 8584,
      "Reduced": 8585,
      "Multiplication": 8586,
      "ambiguous": 8587,
      ")-(": 8588,
      "specified": 8589,
      "revisited": 8590,
      "significantly": 8591,
      "pattern": 8592,
      "Auto": 8593,
      "Nonetheless": 8594,
      "chsbaum": 8595,
      "Associated": 8596,
      "Direct": 8597,
      "evident": 8598,
      "Commutative": 8599,
      "Buchsbaum": 8600,
      "curiosity": 8601,
      "Keeping": 8602,
      "fortunately": 8603,
      "collap": 8604,
      "infaut": 8605,
      "article": 8606,
      "Correspondingly": 8607,
      "David": 8608,
      "Hurwitz": 8609,
      "Identi": 8610,
      "Kleiman": 8611,
      "True": 8612,
      "constitu": 8613,
      "equicharacteristic": 8614,
      "@{^{(}->}[": 8615,
      "!,": 8616,
      "!).": 8617,
      "!}}": 8618,
      "$'',": 8619,
      "'}).": 8620,
      ")!}\\": 8621,
      ",*}(\\": 8622,
      "0_X": 8623,
      "0_y": 8624,
      "3_": 8625,
      "=(": 8626,
      "Brie": 8627,
      "Bondal": 8628,
      "BvdB": 8629,
      "C_r": 8630,
      "C_g": 8631,
      "DCoh": 8632,
      "E8": 8633,
      "EN": 8634,
      "El": 8635,
      "Emer": 8636,
      "Either": 8637,
      "Front": 8638,
      "GD": 8639,
      "H2": 8640,
      "He": 8641,
      "Hall": 8642,
      "IF": 8643,
      "K_k": 8644,
      "Lk": 8645,
      "Line": 8646,
      "Lang": 8647,
      "Mis": 8648,
      "N_A": 8649,
      "Pa": 8650,
      "Pseudo": 8651,
      "Rings": 8652,
      "Sanity": 8653,
      "VII": 8654,
      "XZ": 8655,
      "\\}/": 8656,
      "]&": 8657,
      "]]$,": 8658,
      "ael": 8659,
      "bdd": 8660,
      "baffling": 8661,
      "c_s": 8662,
      "d_p": 8663,
      "d_s": 8664,
      "edi": 8665,
      "fb": 8666,
      "fly": 8667,
      "fla": 8668,
      "fg_i": 8669,
      "gure": 8670,
      "gates": 8671,
      "h_k": 8672,
      "h_S": 8673,
      "h_r": 8674,
      "hler": 8675,
      "iy": 8676,
      "mt": 8677,
      "nQ": 8678,
      "nf": 8679,
      "pE": 8680,
      "p_p": 8681,
      "prefer": 8682,
      "sb": 8683,
      "s_p": 8684,
      "slicing": 8685,
      "t_W": 8686,
      "uf": 8687,
      "u_V": 8688,
      "v_c": 8689,
      "wis": 8690,
      "yk": 8691,
      "{?}": 8692,
      "}}))": 8693,
      "macl": 8694,
      "insen": 8695,
      "alge": 8696,
      "encoun": 8697,
      "ised": 8698,
      "ontin": 8699,
      "reprove": 8700,
      "recompletion": 8701,
      "recovered": 8702,
      "erar": 8703,
      "anno": 8704,
      "thew": 8705,
      "secting": 8706,
      "semic": 8707,
      "arded": 8708,
      "atus": 8709,
      "chinese": 8710,
      "propa": 8711,
      "account": 8712,
      ")$}.": 8713,
      "pole": 8714,
      "nose": 8715,
      "lare": 8716,
      "itate": 8717,
      "})}$-": 8718,
      "})|$": 8719,
      "})[-": 8720,
      "taro": 8721,
      "cost": 8722,
      "colength": 8723,
      "cospecialization": 8724,
      "setcounter": 8725,
      "subcat": 8726,
      "times_D": 8727,
      "us_1": 8728,
      "fically": 8729,
      "figure": 8730,
      "apart": 8731,
      "precomposed": 8732,
      "bullet_n": 8733,
      "limited": 8734,
      "otimes_L": 8735,
      "haven": 8736,
      "intention": 8737,
      "intui": 8738,
      "linebundles": 8739,
      ")$.)": 8740,
      ")$.}": 8741,
      "}$.}": 8742,
      "}$.}.": 8743,
      "varies": 8744,
      "alpha_r": 8745,
      "Inc": 8746,
      "X_E": 8747,
      "X_l": 8748,
      "X_p": 8749,
      "lll": 8750,
      "')}\\": 8751,
      "'),\\": 8752,
      "')^{(": 8753,
      "dag": 8754,
      "separating": 8755,
      "}}])": 8756,
      "'}^*\\": 8757,
      "illy": 8758,
      "''},": 8759,
      "''',": 8760,
      "}'(\\": 8761,
      "}'})$": 8762,
      "psi_0": 8763,
      "minprimes": 8764,
      "i_6": 8765,
      "i_7": 8766,
      "nonnoetherian": 8767,
      "Gamma_0": 8768,
      "Contrary": 8769,
      "formalize": 8770,
      "delta_k": 8771,
      "getting": 8772,
      "lambda_g": 8773,
      "U_K": 8774,
      "U_c": 8775,
      "U_u": 8776,
      "mild": 8777,
      "prise": 8778,
      "favor": 8779,
      "normalize": 8780,
      "\\}}$,": 8781,
      "A_I": 8782,
      "A_h": 8783,
      "\\{(\\": 8784,
      "differenti": 8785,
      "D_f": 8786,
      "D_r": 8787,
      "serves": 8788,
      "served": 8789,
      "m_m": 8790,
      "x_4": 8791,
      "x_5": 8792,
      "x_p": 8793,
      "M_c": 8794,
      "specify": 8795,
      "clearing": 8796,
      "Delta_Y": 8797,
      "R_m": 8798,
      "interlude": 8799,
      "x_ix_j": 8800,
      "light": 8801,
      "Y_b": 8802,
      "translations": 8803,
      "carries": 8804,
      "Exp": 8805,
      "Expose": 8806,
      "V_K": 8807,
      "infeld": 8808,
      ")(-": 8809,
      "h_y": 8810,
      "describes": 8811,
      "abM": 8812,
      "abuts": 8813,
      "])^{": 8814,
      "varphi_M": 8815,
      "aution": 8816,
      "included": 8817,
      "T_d": 8818,
      "Absolute": 8819,
      "'((": 8820,
      "p_t": 8821,
      "mission": 8822,
      "I_N": 8823,
      "I_y": 8824,
      "dim_z": 8825,
      "pi_v": 8826,
      "[(*)]": 8827,
      "s_d": 8828,
      "@{.": 8829,
      "}')^{": 8830,
      "'})}": 8831,
      "'}))$": 8832,
      "totalization": 8833,
      "omega_C": 8834,
      "injects": 8835,
      "ordan": 8836,
      "}]\\": 8837,
      "d_C": 8838,
      "d_J": 8839,
      "CH_n": 8840,
      "e_M": 8841,
      "e_c": 8842,
      "{+}$.": 8843,
      "'|)": 8844,
      "approximated": 8845,
      ")/(\\": 8846,
      "thanks": 8847,
      "}''|": 8848,
      "}^\\#)$": 8849,
      "}^\\#$-": 8850,
      "picking": 8851,
      "hierar": 8852,
      "Compact": 8853,
      "'},\\": 8854,
      "J_e": 8855,
      "cosk0": 8856,
      "*}((": 8857,
      ")^*/": 8858,
      "alternatively": 8859,
      "''}^{-": 8860,
      "rests": 8861,
      "observed": 8862,
      "g_0m": 8863,
      "Tracing": 8864,
      "eventual": 8865,
      "newtheorem": 8866,
      "2020": 8867,
      "I_2M": 8868,
      "Does": 8869,
      "chi_f": 8870,
      "Representable": 8871,
      "originally": 8872,
      "analytic": 8873,
      "analyze": 8874,
      "Preparation": 8875,
      "counterparts": 8876,
      "motivated": 8877,
      "Specialization": 8878,
      "Bertini": 8879,
      "enumi": 8880,
      "Repeat": 8881,
      "w_iw_jw_kw_l": 8882,
      "Internal": 8883,
      "Intersecting": 8884,
      "romannumeral3": 8885,
      "coarsest": 8886,
      "cellany": 8887,
      "advanced": 8888,
      "pd1": 8889,
      "public": 8890,
      "published": 8891,
      "conjectures": 8892,
      "Constructing": 8893,
      "obsoleted": 8894,
      "FP_U": 8895,
      "squishing": 8896,
      "convergent": 8897,
      "witnessing": 8898,
      "citatus": 8899,
      "specifically": 8900,
      "justi": 8901,
      "clarify": 8902,
      "exclusively": 8903,
      "nullity": 8904,
      "Homotop": 8905,
      "manifolds": 8906,
      "GNU": 8907,
      "massage": 8908,
      "rotating": 8909,
      "package": 8910,
      "Cohomological": 8911,
      "ameliorate": 8912,
      "Monomorphisms": 8913,
      "Precisely": 8914,
      "Briefly": 8915,
      "Elkik": 8916,
      "Emerton": 8917,
      "maclane": 8918,
      "ontinuous": 8919,
      "semicontinuous": 8920,
      "propagates": 8921,
      "minprimespoly": 8922,
      "hierarchy": 8923,
      "!}$,": 8924,
      "\",": 8925,
      "\"}": 8926,
      "'}\\}$": 8927,
      ")})$,": 8928,
      "-(-": 8929,
      ".~": 8930,
      "/|": 8931,
      "0_U": 8932,
      "2R": 8933,
      "2r": 8934,
      "2f_": 8935,
      "2star": 8936,
      "31": 8937,
      "4_i": 8938,
      "=\\{": 8939,
      "B_p": 8940,
      "Chas": 8941,
      "D4": 8942,
      "Epp": 8943,
      "E_s": 8944,
      "Glob": 8945,
      "H4": 8946,
      "Herbrand": 8947,
      "IT": 8948,
      "IX": 8949,
      "Impl": 8950,
      "IH_": 8951,
      "IH_n": 8952,
      "Kprime": 8953,
      "LL": 8954,
      "L_p": 8955,
      "Lie": 8956,
      "List": 8957,
      "Min": 8958,
      "NF": 8959,
      "Nish": 8960,
      "N_B": 8961,
      "N_t": 8962,
      "ON": 8963,
      "Ok": 8964,
      "O_v": 8965,
      "Pri": 8966,
      "P_X": 8967,
      "Rq": 8968,
      "SE": 8969,
      "Schan": 8970,
      "Stalk": 8971,
      "Tech": 8972,
      "Twis": 8973,
      "Vo": 8974,
      "]}$,": 8975,
      "]])": 8976,
      "_local": 8977,
      "asu": 8978,
      "akizuki": 8979,
      "bA": 8980,
      "bs": 8981,
      "bun": 8982,
      "cand": 8983,
      "c_X": 8984,
      "dJ": 8985,
      "dc": 8986,
      "fI": 8987,
      "fN": 8988,
      "fz": 8989,
      "fle": 8990,
      "flow": 8991,
      "ff_": 8992,
      "gs": 8993,
      "hed": 8994,
      "iE": 8995,
      "ira": 8996,
      "iri": 8997,
      "ky": 8998,
      "kji": 8999,
      "lk": 9000,
      "l_n": 9001,
      "nk": 9002,
      "nS_": 9003,
      "oted": 9004,
      "olem": 9005,
      "pn": 9006,
      "py": 9007,
      "pin": 9008,
      "ping": 9009,
      "pay": 9010,
      "plying": 9011,
      "rD": 9012,
      "r_X": 9013,
      "r_3": 9014,
      "son": 9015,
      "sle": 9016,
      "s_U": 9017,
      "tB": 9018,
      "tc": 9019,
      "uc": 9020,
      "ution": 9021,
      "vil": 9022,
      "wx": 9023,
      "w_f": 9024,
      "w_g": 9025,
      "xf": 9026,
      "xample": 9027,
      "xf_1": 9028,
      "ym": 9029,
      "yx": 9030,
      "year": 9031,
      "{!}": 9032,
      "|)$,": 9033,
      "|/|": 9034,
      "}*": 9035,
      "}-": 9036,
      "insures": 9037,
      "als": 9038,
      "alle": 9039,
      "ensive": 9040,
      "reproduces": 9041,
      "reordering": 9042,
      "record": 9043,
      "recomm": 9044,
      "rexample": 9045,
      "timate": 9046,
      "terexample": 9047,
      "thety": 9048,
      "beware": 9049,
      "roubian": 9050,
      "ch_p": 9051,
      "ents": 9052,
      "acies": 9053,
      "across": 9054,
      "accord": 9055,
      "accep": 9056,
      "}$'": 9057,
      "Thicken": 9058,
      "endos": 9059,
      ")$)": 9060,
      "assu": 9061,
      "rick": 9062,
      "Leta": 9063,
      "poset": 9064,
      "positivity": 9065,
      "{\\#": 9066,
      "})'": 9067,
      "})(\\": 9068,
      "})^\\#$": 9069,
      "uninteresting": 9070,
      "coprime": 9071,
      "coker": 9072,
      "cocones": 9073,
      "cons": 9074,
      "subcover": 9075,
      "subsystem": 9076,
      "_1pc": 9077,
      "times_u": 9078,
      "wild": 9079,
      "uson": 9080,
      "etal": 9081,
      "option": 9082,
      "predic": 9083,
      "otimes_D": 9084,
      "bock": 9085,
      "$([": 9086,
      "f_S": 9087,
      "^*[\\": 9088,
      "algebraicity": 9089,
      "alpha_t": 9090,
      "Inverse": 9091,
      "ichael": 9092,
      "varphi_f": 9093,
      "soever": 9094,
      "}\\}.": 9095,
      "')}(\\": 9096,
      "'))$,": 9097,
      "')^!(": 9098,
      "bre_local": 9099,
      "adorn": 9100,
      "surjectively": 9101,
      "extent": 9102,
      "'}|$": 9103,
      "''|": 9104,
      "''')": 9105,
      "'''$.": 9106,
      "pi0": 9107,
      "eleta": 9108,
      "Formul": 9109,
      "}'|$": 9110,
      "sum_k": 9111,
      "))|": 9112,
      "))^\\#": 9113,
      "))^{[": 9114,
      "nonsplit": 9115,
      "nonuniqueness": 9116,
      "nondecreasing": 9117,
      "Gamma_p": 9118,
      "regarded": 9119,
      "Omega_1": 9120,
      "]$}": 9121,
      "delta_Y": 9122,
      "delta_S": 9123,
      "lambda_3": 9124,
      "U_T": 9125,
      "pr2star": 9126,
      "ayley": 9127,
      "nolimits_t": 9128,
      "prod_i": 9129,
      "differences": 9130,
      "S_e": 9131,
      "g_b": 9132,
      "g_e": 9133,
      "torially": 9134,
      "f_ig_j": 9135,
      "x_C": 9136,
      "]^(.": 9137,
      "tency": 9138,
      "uel": 9139,
      "clears": 9140,
      "Omega_R": 9141,
      "nu_U": 9142,
      "R_t": 9143,
      "homothety": 9144,
      "monos": 9145,
      "simplicity": 9146,
      "Mor_V": 9147,
      "tilting": 9148,
      "handle": 9149,
      "blowdown": 9150,
      "betti": 9151,
      "Z_b": 9152,
      "carte": 9153,
      "B_E": 9154,
      "B_h": 9155,
      "B_w": 9156,
      "trivialize": 9157,
      "trivialized": 9158,
      "considerations": 9159,
      "Exts": 9160,
      "h_E": 9161,
      "h_u": 9162,
      "orders": 9163,
      "infty_": 9164,
      "Mor_B": 9165,
      "1_P": 9166,
      "valuations": 9167,
      "whatsoever": 9168,
      "W_v": 9169,
      "])|": 9170,
      "contracted": 9171,
      "T_W": 9172,
      "Cart": 9173,
      "knowledge": 9174,
      "g_ix_i": 9175,
      "applic": 9176,
      "a_ix_i": 9177,
      "pi_D": 9178,
      "s_F": 9179,
      "introduces": 9180,
      "omega_E": 9181,
      ")\\}$,": 9182,
      "a_1a_2": 9183,
      "}]$-": 9184,
      "}]}{": 9185,
      "d_I": 9186,
      "')^*,": 9187,
      "Lf_0": 9188,
      "horrend": 9189,
      "P_G": 9190,
      "^\\#)$": 9191,
      "approx": 9192,
      "2w_k": 9193,
      "'|)$,": 9194,
      "CH_d": 9195,
      "Quillen": 9196,
      "doubt": 9197,
      "odsky": 9198,
      "gamma_F": 9199,
      "evodsky": 9200,
      "i_ji_k": 9201,
      "Complete": 9202,
      "iii": 9203,
      "modifying": 9204,
      "classification": 9205,
      "xi_e": 9206,
      "Beh": 9207,
      "zeta_y": 9208,
      "foundations": 9209,
      "foundational": 9210,
      "ddd": 9211,
      "ddll": 9212,
      "inertial": 9213,
      "Decom": 9214,
      "expresses": 9215,
      "karoubian": 9216,
      "stabilize": 9217,
      "Grassmannian": 9218,
      "EGA4": 9219,
      "requirements": 9220,
      "amalg_y": 9221,
      "involution": 9222,
      "tautness": 9223,
      "Unfortunately": 9224,
      "eta_fN": 9225,
      "division": 9226,
      "SGA2": 9227,
      "assassins": 9228,
      "Look": 9229,
      "kovacs": 9230,
      "envelopes": 9231,
      "uniformizers": 9232,
      "Crit": 9233,
      "Pushing": 9234,
      "AB3": 9235,
      "AB5": 9236,
      "devoted": 9237,
      "rectangles": 9238,
      "Good": 9239,
      "Godement": 9240,
      "(*),": 9241,
      "removed": 9242,
      "towers": 9243,
      "extreme": 9244,
      "Maz": 9245,
      "Compositions": 9246,
      "phenomena": 9247,
      "Nonexistence": 9248,
      "squish": 9249,
      "error": 9250,
      "Clearing": 9251,
      "Reduce": 9252,
      "desingularize": 9253,
      "appealing": 9254,
      "ignored": 9255,
      "EffCart": 9256,
      "beauti": 9257,
      "conjugate": 9258,
      "simplified": 9259,
      "technique": 9260,
      "AAA": 9261,
      "CofSet": 9262,
      "resolved": 9263,
      "$(**)$": 9264,
      "completing": 9265,
      "completeness": 9266,
      "Cycles": 9267,
      "Contradiction": 9268,
      "Kunen": 9269,
      "BadCurves": 9270,
      "History": 9271,
      "Knutson": 9272,
      "Serre_alge": 9273,
      "Kato": 9274,
      "ablishvil": 9275,
      "Describe": 9276,
      "appropriate": 9277,
      "Linear": 9278,
      "insensitive": 9279,
      "intentionally": 9280,
      "Increasing": 9281,
      "Chasing": 9282,
      "Global": 9283,
      "Schanuel": 9284,
      "Stalks": 9285,
      "Voevodsky": 9286,
      "bunch": 9287,
      "candid": 9288,
      "accordance": 9289,
      "accepted": 9290,
      "Thickenings": 9291,
      "rickard": 9292,
      "predicted": 9293,
      "bockstein": 9294,
      "bre_locale": 9295,
      "adorned": 9296,
      "horrendous": 9297,
      "Serre_algebre_locale": 9298,
      "\".": 9299,
      "'\\}$.": 9300,
      "'')^{-": 9301,
      "'!}\\": 9302,
      "'')^": 9303,
      ")$\\": 9304,
      "*})": 9305,
      "*$-": 9306,
      "*)$.": 9307,
      "*}}": 9308,
      "-(\\": 9309,
      "1j_": 9310,
      "25": 9311,
      "2l": 9312,
      "2x": 9313,
      "2_R": 9314,
      "2_B": 9315,
      "2m_0": 9316,
      "4c": 9317,
      "4ex": 9318,
      "4a_": 9319,
      "4c_1": 9320,
      "6g": 9321,
      "8pc": 9322,
      "AC": 9323,
      "AT": 9324,
      "Atiyah": 9325,
      "Bet": 9326,
      "Boc": 9327,
      "CL": 9328,
      "Cal": 9329,
      "C_f": 9330,
      "Cayley": 9331,
      "E_t": 9332,
      "Edidin": 9333,
      "Fa": 9334,
      "Fppf": 9335,
      "G_k": 9336,
      "G_s": 9337,
      "H_k": 9338,
      "Hamil": 9339,
      "Ide": 9340,
      "JP": 9341,
      "Kra": 9342,
      "K_A": 9343,
      "Lg_i": 9344,
      "Michael": 9345,
      "N_Z": 9346,
      "N_m": 9347,
      "Numerical": 9348,
      "Opa": 9349,
      "Ogoma": 9350,
      "PD": 9351,
      "Pext": 9352,
      "P_k": 9353,
      "P_r": 9354,
      "Q_0": 9355,
      "RA": 9356,
      "RD": 9357,
      "Rec": 9358,
      "Rot": 9359,
      "RMS1": 9360,
      "Sa": 9361,
      "Stru": 9362,
      "Slight": 9363,
      "Text": 9364,
      "T_A": 9365,
      "W_U": 9366,
      "W_m": 9367,
      "Yasu": 9368,
      "Z_V": 9369,
      "\\})^{-": 9370,
      "bx": 9371,
      "cj": 9372,
      "cre": 9373,
      "cic": 9374,
      "cke": 9375,
      "dp": 9376,
[...]
